<unk>	0
<s>	0
</s>	0
,	-2.20614
。	-3.34032
:“	-3.95547
的	-4.32643
。”	-4.33639
了	-4.44708
道	-4.87258
我	-4.92868
来	-5.06101
你	-5.09557
、	-5.28466
说	-5.30503
又	-5.31001
去	-5.49414
宝玉	-5.51057
也	-5.52332
便	-5.54728
?”	-5.55439
笑道	-5.624
不	-5.63226
她	-5.63395
一	-5.66653
人	-5.67236
他	-5.67547
这	-5.68661
是	-5.7086
?	-5.81612
▁	-5.82984
那	-5.88851
呢	-5.91135
!	-5.92609
有	-5.93222
都	-5.9337
在	-5.99355
着	-5.9961
上	-6.01761
就	-6.03487
好	-6.10903
!”	-6.11882
要	-6.15129
子	-6.20745
大	-6.24935
因	-6.29083
凤姐	-6.29631
儿	-6.33829
黛玉	-6.34489
贾母	-6.35209
得	-6.3814
之	-6.41483
到	-6.41628
我们	-6.42338
叫	-6.44018
还	-6.44144
见	-6.46256
如今	-6.46436
宝钗	-6.47506
只	-6.47811
“	-6.50147
出	-6.51661
你们	-6.51978
下	-6.52181
王夫人	-6.52349
等	-6.53018
一个	-6.55395
‘	-6.55486
再	-6.56359
贾政	-6.5719
问	-6.57302
过	-6.59527
将	-6.59553
和	-6.59738
才	-6.60113
;	-6.60149
心	-6.62496
老太太	-6.64169
看	-6.6515
倒	-6.66111
袭人	-6.66336
忙	-6.66762
罢	-6.67581
个	-6.68292
些	-6.68511
去了	-6.6898
自己	-6.69925
时	-6.70106
说道	-6.7116
为	-6.72226
起来	-6.72274
把	-6.72992
小	-6.7439
出来	-6.74468
说着	-6.74664
先	-6.79225
作	-6.79275
事	-6.79433
”	-6.79689
方	-6.80967
姑娘	-6.82577
贾琏	-6.82908
来了	-6.82931
只见	-6.84088
家	-6.84326
与	-6.84692
平儿	-6.84855
花	-6.87013
无	-6.87089
进来	-6.87246
什么	-6.87452
’	-6.87562
正	-6.896
可	-6.89778
头	-6.90742
打	-6.9078
太太	-6.92123
这个	-6.92311
一面	-6.9259
吃	-6.92974
自	-6.93375
若	-6.94318
:	-6.94591
已	-6.97282
回	-6.97355
中	-6.97811
起	-6.98408
别	-6.98614
请	-6.99084
只是	-7.00381
没有	-7.01923
气	-7.02023
老爷	-7.04308
这样	-7.04443
不知	-7.04706
用	-7.04941
众人	-7.04945
不是	-7.05206
没	-7.05866
命	-7.0627
多	-7.07584
咱们	-7.09516
只得	-7.09664
想	-7.11115
同	-7.11942
听	-7.12751
奶奶	-7.13391
怎么	-7.14039
大家	-7.14518
宝玉道	-7.14949
拿	-7.1616
的人	-7.17756
听见	-7.17849
回来	-7.1867
他们	-7.18787
两	-7.18804
却	-7.19096
连	-7.19202
出去	-7.19915
天	-7.20291
从	-7.20578
生	-7.2111
话	-7.21351
且	-7.21728
笑	-7.2185
所以	-7.22411
里	-7.22593
往	-7.22607
也不	-7.22836
紫鹃	-7.22946
薛姨妈	-7.23797
凤姐儿	-7.25087
送	-7.28099
过来	-7.28215
至	-7.29251
香	-7.2953
听了	-7.2966
谁	-7.30564
竟	-7.31638
门	-7.32553
向	-7.33204
知道	-7.34629
今日	-7.34856
前	-7.34856
一时	-7.35382
此	-7.36189
就是	-7.3671
酒	-7.36902
内	-7.38452
二	-7.38907
走	-7.38959
情	-7.39269
鸳鸯	-7.39441
二爷	-7.39579
探春	-7.39696
虽	-7.40401
给	-7.41148
比	-7.41578
贾珍	-7.41803
坐	-7.42245
病	-7.42922
后	-7.4295
那里	-7.4308
早	-7.43084
三	-7.43225
她们	-7.43658
开	-7.43907
水	-7.43962
手	-7.43985
这里	-7.44608
两个	-7.45135
字	-7.4541
死	-7.4548
行	-7.45942
的事	-7.4629
心里	-7.46378
书	-7.46887
都是	-7.47657
亲	-7.47786
老	-7.48475
不过	-7.48824
的话	-7.4892
更	-7.48937
快	-7.4907
并	-7.49403
李纨	-7.4951
姐姐	-7.50734
不能	-7.51155
日	-7.52268
做	-7.52394
见了	-7.52815
东西	-7.539
分	-7.54305
知	-7.54526
住	-7.55174
钱	-7.56094
白	-7.56883
也是	-7.57578
名	-7.58076
亦	-7.58643
二人	-7.59714
意	-7.60941
发	-7.61334
尤氏	-7.6183
未	-7.61867
所	-7.62077
长	-7.62504
这些	-7.62638
告诉	-7.63474
晴雯	-7.63759
如何	-7.64576
玉	-7.64808
薛蟠	-7.6486
于	-7.65053
么	-7.65404
本	-7.66347
冷	-7.66449
也有	-7.66546
使	-7.66599
今儿	-7.66621
金	-7.6683
香菱	-7.67114
以	-7.67128
其	-7.67982
难	-7.68362
眼	-7.68375
年	-7.68664
找	-7.68777
如此	-7.68993
反	-7.69046
当	-7.69134
如	-7.69229
邢夫人	-7.69255
不好	-7.69424
说了	-7.69916
只管	-7.69972
真	-7.70007
成	-7.70084
人家	-7.70357
风	-7.70358
进去	-7.70431
原	-7.70449
带	-7.70667
湘云	-7.71091
不敢	-7.71377
地	-7.71487
官	-7.71623
者	-7.71924
放	-7.72493
传	-7.72854
月	-7.73277
皆	-7.73314
在这里	-7.7339
还有	-7.73708
理	-7.74711
说话	-7.74917
而	-7.75059
自然	-7.75435
不成	-7.75888
入	-7.7627
处	-7.76749
那边	-7.76781
口	-7.7705
喜	-7.77129
被	-7.77143
茶	-7.77548
外	-7.77671
那些	-7.7772
遂	-7.77843
红	-7.78195
求	-7.78422
能	-7.78815
接	-7.7962
怕	-7.80412
到了	-7.80795
常	-7.8086
丫头	-7.80867
对	-7.81134
或	-7.81139
相	-7.81477
言	-7.81722
劝	-7.82156
该	-7.82207
《	-7.82489
几	-7.82546
管	-7.8278
进	-7.8312
宝玉笑道	-7.8329
这是	-7.83411
去罢	-7.8501
点	-7.85216
故	-7.8558
死了	-7.8605
身	-7.86513
既	-7.86785
学	-7.87322
叫人	-7.87462
会	-7.87512
房	-7.8763
麝月	-7.88243
瞧	-7.88339
银子	-7.88413
罢了	-7.89335
回去	-7.89513
心中	-7.89862
信	-7.90015
明	-7.90072
媳妇	-7.90145
哭	-7.90551
看见	-7.90592
礼	-7.91028
贾蓉	-7.91961
连忙	-7.91974
们	-7.92015
果然	-7.92254
刘姥姥	-7.9231
别人	-7.92318
声	-7.92488
面	-7.92669
清	-7.93366
这么	-7.93538
色	-7.94101
我也	-7.94824
哪里	-7.94835
不得	-7.94841
神	-7.95123
方才	-7.95216
:”	-7.95451
念	-7.95812
闹	-7.95914
动	-7.97122
这话	-7.97592
又是	-7.97756
外头	-7.97975
:‘	-7.98044
带了	-7.98229
脸	-7.98663
满	-7.98826
越发	-7.989
里头	-7.99822
二奶奶	-7.99942
只有	-8.00095
散	-8.00121
新	-8.00645
今	-8.0112
弄	-8.01153
只怕	-8.01404
诗	-8.01409
爱	-8.01853
在那里	-8.02345
令	-8.02499
偏	-8.02518
少	-8.02557
云	-8.02676
睡	-8.02809
还是	-8.02813
已经	-8.02964
四	-8.0329
林黛玉	-8.03349
不如	-8.03649
安	-8.03702
太	-8.04238
赏	-8.04253
算	-8.04884
况且	-8.0518
是个	-8.05212
尽	-8.05338
贾芸	-8.05514
这会子	-8.05582
几个	-8.05886
一日	-8.05979
于是	-8.06086
然	-8.06335
过去	-8.06419
难道	-8.0687
落	-8.07472
定	-8.07764
药	-8.07954
戏	-8.08328
不知道	-8.08333
何	-8.08429
才好	-8.08557
应	-8.08638
略	-8.08707
便说	-8.08854
玩	-8.09405
重	-8.09556
待	-8.0987
半	-8.09884
因此	-8.10123
乱	-8.10229
不用	-8.10287
妹妹	-8.10313
干	-8.10552
养	-8.10667
袭人道	-8.10913
谁知	-8.10982
贾赦	-8.11073
喜欢	-8.11678
王	-8.12069
叫我	-8.12176
让	-8.12179
好了	-8.12561
素日	-8.12607
报	-8.13176
贾母道	-8.13289
文	-8.13396
有人	-8.1399
仍	-8.14017
那个	-8.14183
吃了	-8.14236
世	-8.1427
女	-8.14302
空	-8.14773
此时	-8.14779
就是了	-8.14788
随	-8.15026
叫他	-8.15147
便是	-8.15277
十	-8.15301
则	-8.15737
寻	-8.16328
众	-8.16463
明儿	-8.16792
我就	-8.16794
看着	-8.16863
听说	-8.16938
合	-8.17371
惜春	-8.17916
只说	-8.18122
不觉	-8.18501
又有	-8.18629
倒是	-8.18768
还要	-8.1902
数	-8.19298
不肯	-8.19333
解	-8.19496
若是	-8.19525
原是	-8.19605
姊妹	-8.19808
跟	-8.20034
直	-8.20388
高	-8.20526
明白	-8.20551
身上	-8.20698
又说	-8.21184
家里	-8.21538
马	-8.21542
五	-8.21865
灯	-8.22355
说的	-8.22515
妙玉	-8.2256
走来	-8.229
周瑞家的	-8.2318
芳官	-8.23189
贾环	-8.23863
路	-8.2395
女儿	-8.24048
恐	-8.24532
》	-8.24668
实	-8.24735
穿	-8.24762
经	-8.24846
说是	-8.25404
但	-8.25569
到底	-8.25608
婆子	-8.25738
苦	-8.25818
宝玉听了	-8.25866
火	-8.25892
甚	-8.26045
爷	-8.26072
饭	-8.26142
强	-8.26549
各	-8.26572
一面说	-8.26967
旧	-8.27029
一般	-8.27304
屋里	-8.27368
嘴	-8.27409
不要	-8.27699
写	-8.27871
然后	-8.28017
得了	-8.28202
断	-8.2853
看时	-8.28687
即	-8.28693
领	-8.28779
一件	-8.28885
的东西	-8.29453
像	-8.29649
万	-8.30009
茗烟	-8.30044
办	-8.30095
间	-8.30248
银	-8.30286
叹	-8.30315
雨村	-8.30358
怎么样	-8.30429
细	-8.3048
拿了	-8.30495
复	-8.30585
收	-8.30732
及	-8.30791
画	-8.30961
喝	-8.31372
有些	-8.31565
取	-8.31678
走了	-8.31895
山	-8.32096
打发	-8.32289
必	-8.32468
一个人	-8.32529
来的	-8.32688
骂	-8.32843
因问	-8.3288
我的	-8.32944
天天	-8.33148
衣	-8.33509
转	-8.33541
鬼	-8.33622
金桂	-8.34402
了一回	-8.34488
公	-8.34577
单	-8.34616
车	-8.34801
。“	-8.34994
’,	-8.35025
一回	-8.35075
极	-8.35146
提	-8.35235
迎春	-8.35847
留	-8.35847
服侍	-8.35854
闲	-8.36279
坐着	-8.36514
悄悄的	-8.37018
思	-8.37396
全	-8.37495
混	-8.37518
春	-8.37612
叫她	-8.37668
远	-8.37899
林姑娘	-8.38196
跟前	-8.38334
凡	-8.38483
便问	-8.38485
明日	-8.38628
赵姨娘	-8.38918
原来	-8.38972
乃	-8.3898
觉	-8.39231
仙	-8.39609
起身	-8.39676
莺儿	-8.39697
生气	-8.39709
不必	-8.39973
最	-8.39974
照	-8.40085
坐下	-8.40126
看了	-8.40189
前儿	-8.4023
似	-8.40354
家人	-8.40509
后来	-8.40765
想着	-8.40968
闻	-8.41018
岂不	-8.41253
为什么	-8.4142
这一	-8.41432
只听	-8.41455
上来	-8.41669
刚	-8.41669
非	-8.41707
一声	-8.41866
▁宝玉	-8.41912
赶	-8.41929
忽见	-8.41958
倘或	-8.42052
石	-8.42723
有个	-8.42844
飞	-8.42856
正是	-8.42946
近	-8.43003
立	-8.43538
摆	-8.43558
受	-8.43762
是谁	-8.43867
欲	-8.43963
服	-8.44038
总	-8.44043
买	-8.44138
宝琴	-8.44483
也没	-8.44588
宝	-8.44932
一样	-8.44987
点头	-8.45031
乐	-8.45189
草	-8.45313
儿子	-8.45341
查	-8.4545
引	-8.45661
贾	-8.46025
交	-8.46143
依	-8.46148
有了	-8.46222
恨	-8.46616
十分	-8.46673
急	-8.46714
你的	-8.46875
毕	-8.46987
虽然	-8.47007
以后	-8.47066
奴才	-8.47068
你就	-8.47206
也都	-8.4723
丫头们	-8.47289
有什么	-8.47333
偷	-8.47519
独	-8.47534
雪雁	-8.47731
昨儿	-8.47777
岁	-8.47782
不许	-8.47788
跟着	-8.48036
果	-8.48082
指	-8.4834
性	-8.48443
谢	-8.48607
客	-8.48622
拿着	-8.48709
嫂子	-8.48866
似的	-8.49055
不过是	-8.49248
梦	-8.49383
笑着	-8.4941
宝蟾	-8.49493
语	-8.50442
下来	-8.50451
瞧瞧	-8.50618
姑娘们	-8.50948
答应	-8.51047
题	-8.5118
哥哥	-8.51205
也就	-8.51311
别的	-8.51329
答应了	-8.51863
席	-8.51884
听得	-8.51956
作什么	-8.52013
结	-8.52048
见他	-8.52181
了一个	-8.52597
张	-8.52645
柳	-8.52848
纸	-8.5289
外面	-8.53001
完了	-8.53042
很	-8.53432
给他	-8.53482
丫鬟	-8.53632
归	-8.53795
正说着	-8.53828
之事	-8.53922
少不得	-8.53926
配	-8.54224
可以	-8.54344
早已	-8.5442
灵	-8.54666
忘了	-8.54832
疼	-8.55194
敢	-8.55224
预备	-8.55342
带着	-8.55355
教	-8.55419
系	-8.55456
通	-8.55624
借	-8.55688
将来	-8.55858
给我	-8.55973
过了	-8.56024
记	-8.56059
另	-8.56246
望	-8.56313
治	-8.56339
朝	-8.56514
秦钟	-8.56617
分解	-8.56687
不曾	-8.56775
回道	-8.56846
无人	-8.57213
奇	-8.57323
西	-8.57409
房里	-8.57488
青	-8.5815
热	-8.58158
收拾	-8.58272
里面	-8.58278
呆	-8.58429
告	-8.58442
不见	-8.58578
小丫头	-8.58732
陪	-8.58829
活	-8.58899
失	-8.58953
可是	-8.58997
吃饭	-8.59053
必是	-8.59075
法	-8.5912
夜	-8.59132
却是	-8.59267
一看	-8.59309
拉	-8.59325
推	-8.59463
送了	-8.59558
一句	-8.59977
各处	-8.60211
姨太太	-8.60291
昨日	-8.60349
一处	-8.6035
露	-8.60776
首	-8.60808
回头	-8.6088
假	-8.60997
现	-8.61013
托	-8.61337
妈	-8.61957
秋	-8.6218
悲	-8.62218
好些	-8.6235
父母	-8.62383
贾琏道	-8.62453
派	-8.62583
烦	-8.62742
回说	-8.62889
怪	-8.63366
百	-8.63702
你也	-8.63895
按	-8.63967
雪	-8.63988
深	-8.64084
光	-8.64174
接了	-8.64211
讲	-8.64227
薛蝌	-8.64266
说得	-8.64276
不可	-8.64307
妈妈	-8.64328
才是	-8.64459
八	-8.6452
俱	-8.6457
上头	-8.64705
完	-8.64868
改	-8.6493
笑说	-8.65119
给你	-8.65301
目	-8.6536
娘	-8.65564
认	-8.65763
差	-8.65841
跑	-8.65871
物	-8.65946
窗	-8.66049
两个人	-8.66049
赶着	-8.66063
嫌	-8.66216
回家	-8.66413
商议	-8.66626
尚	-8.66783
罪	-8.66902
大爷	-8.66955
兄弟	-8.66992
宫	-8.67097
多少	-8.67148
不然	-8.67332
汤	-8.67335
任	-8.67411
。’	-8.67422
终	-8.67812
打听	-8.67973
忽	-8.68021
便说道	-8.68027
破	-8.68156
泪	-8.68195
高兴	-8.68344
不大	-8.68435
拜	-8.68535
房中	-8.68568
黄	-8.69335
愁	-8.69347
离	-8.6936
皮	-8.69374
哥儿	-8.69387
底下	-8.69426
边	-8.69586
虚	-8.69694
府	-8.697
各自	-8.69824
端	-8.69944
主子	-8.69949
省	-8.70028
前日	-8.70093
想来	-8.7029
贼	-8.70387
东	-8.70554
便叫	-8.7097
▁且说	-8.71135
脚	-8.71221
杯	-8.71232
力	-8.71276
闷	-8.71419
贾兰	-8.71482
兴	-8.717
说毕	-8.71817
开了	-8.72012
赖	-8.72314
唤	-8.72358
供	-8.72447
怨	-8.72501
好的	-8.72893
平	-8.73036
替	-8.73077
家的	-8.73104
盘	-8.7311
小厮	-8.73341
添	-8.73588
补	-8.73629
住了	-8.73678
二则	-8.73728
不依	-8.73997
好生	-8.74067
实在	-8.74207
放心	-8.74234
我是	-8.74361
初	-8.74647
只要	-8.74672
寒	-8.7469
堂	-8.74718
秋纹	-8.74748
尤二姐	-8.74749
等着	-8.74765
还不	-8.74798
次	-8.74902
我才	-8.7514
每	-8.7531
主意	-8.75562
装	-8.75616
恼	-8.75711
请安	-8.75894
宝二爷	-8.75918
一齐	-8.76172
知道了	-8.76363
身子	-8.76419
那时	-8.76506
在家	-8.76856
加	-8.76907
响	-8.76975
你又	-8.77003
跟了	-8.77387
变	-8.77431
见她	-8.77588
不想	-8.77601
珠	-8.77658
不管	-8.77757
妙	-8.77953
胡涂	-8.77969
的是	-8.78023
换	-8.78187
想起	-8.78279
伤心	-8.78287
轻	-8.78418
▁这里	-8.78505
一年	-8.78704
流	-8.78757
越	-8.78826
关	-8.79132
木	-8.7914
李	-8.79183
备	-8.79198
绣	-8.79229
挑	-8.79247
便将	-8.79277
见宝玉	-8.79403
园中	-8.79498
娶	-8.79547
联	-8.7957
家中	-8.79971
惊	-8.80078
又问	-8.80199
洗	-8.80241
坐了	-8.80353
卖	-8.80405
招	-8.80406
许	-8.80477
一天	-8.80749
叫你	-8.81287
主	-8.81402
讨	-8.81534
年纪	-8.81591
命人	-8.81641
了一	-8.81707
现在	-8.82088
轿	-8.82196
俗	-8.82207
便道	-8.82276
定了	-8.82544
称	-8.8258
犹	-8.82639
姨娘	-8.82661
树	-8.82762
菜	-8.82804
支	-8.82837
碗	-8.82882
抬	-8.82903
林妹妹	-8.82959
给她	-8.83061
包	-8.83095
素	-8.83152
醒	-8.83276
烧	-8.83473
我说	-8.83604
我想	-8.83636
的丫头	-8.83639
静	-8.83688
哪	-8.83756
我还	-8.83789
谈	-8.83894
半日	-8.83933
唱	-8.83961
老祖宗	-8.84005
做什么	-8.84091
衣服	-8.84205
又见	-8.84208
亲戚	-8.84608
因说道	-8.84677
没了	-8.84845
余	-8.84849
拉着	-8.84956
势	-8.84976
的时候	-8.8504
油	-8.85201
史湘云	-8.85268
退	-8.85274
每日	-8.85285
小姐	-8.85413
由	-8.85473
步	-8.85664
恩	-8.86097
众人都	-8.86127
隔	-8.86186
调	-8.86383
兮	-8.86414
它	-8.86419
林之孝家的	-8.86456
要紧	-8.86472
又命	-8.86793
提起	-8.86982
那人	-8.8725
齐	-8.87272
也要	-8.8741
和尚	-8.87489
阴	-8.87612
感	-8.87674
错	-8.87888
正要	-8.88006
原故	-8.88246
出门	-8.88412
凭	-8.88444
你说	-8.88529
伺候	-8.887
又要	-8.88785
千	-8.88848
彩	-8.88851
楼	-8.88893
不提	-8.89017
家去	-8.89077
竟是	-8.89108
了些	-8.89114
出去了	-8.89159
手里	-8.89609
巧	-8.89699
唬	-8.8972
短	-8.89869
老婆子	-8.89884
可不是	-8.89958
床	-8.89994
大夫	-8.90039
福	-8.90108
不来	-8.90208
魂	-8.90209
衣裳	-8.90234
等我	-8.90495
根	-8.90672
愿	-8.90673
吃酒	-8.90831
也罢了	-8.90859
”。	-8.91165
留下	-8.91308
也不敢	-8.9145
纱	-8.91478
吗	-8.91492
饶	-8.91524
侄儿	-8.9161
坐在	-8.91649
宝姐姐	-8.91654
▁话说	-8.91918
人来	-8.92072
五儿	-8.92132
怎样	-8.92348
亲自	-8.92351
迎	-8.92439
费	-8.92499
翻	-8.92804
种	-8.92814
化	-8.92838
血	-8.92858
躲	-8.9286
读书	-8.92888
司棋	-8.92891
伤	-8.93193
曾	-8.93204
一人	-8.93398
在外	-8.93434
套	-8.93456
见过	-8.93539
着急	-8.93582
周	-8.93663
守	-8.93838
姊妹们	-8.93855
佛	-8.94083
也不用	-8.94104
兄	-8.94132
耳	-8.94188
封	-8.94189
一点	-8.94209
不在	-8.94305
忙道	-8.94343
红玉	-8.94374
一场	-8.94666
上面	-8.94847
脸上	-8.95154
邢	-8.95399
举	-8.95466
祭	-8.95506
好好的	-8.9552
这事	-8.95531
岫烟	-8.95539
回了	-8.9566
设	-8.95736
便命	-8.95825
一句话	-8.95838
打了	-8.96114
来至	-8.96319
海	-8.96491
临	-8.965
词	-8.96514
不信	-8.96582
递与	-8.96835
和我	-8.96904
在外头	-8.96924
贾瑞	-8.9693
可巧	-8.9693
有事	-8.96964
走到	-8.97033
足	-8.97103
成了	-8.97114
虽是	-8.97146
也没有	-8.97199
赖大	-8.97212
母	-8.9762
亏	-8.97667
接着	-8.97712
心下	-8.97853
到这里	-8.97978
忙问	-8.98035
影	-8.98113
叔叔	-8.98327
▁那	-8.98502
不在家	-8.98813
女人	-8.99095
听了这话	-8.99126
就完了	-8.99279
答	-8.99361
挂	-8.99431
觉得	-8.99468
雨	-8.9956
今年	-8.99624
孝	-8.99649
代	-8.99667
凑	-8.99677
锦	-8.99678
墙	-8.99682
嚷	-8.99683
节	-8.99688
眉	-8.99703
黑	-8.99713
秦氏	-8.99719
正在	-8.99906
许多	-8.99976
林	-9.00462
头里	-9.00525
诸	-9.00628
答应着	-9.00682
怎	-9.00704
小的	-9.00732
绝	-9.0076
样	-9.00766
纵	-9.00787
拣	-9.00906
贵	-9.01093
贾蔷	-9.01093
问她	-9.01106
妆	-9.01132
搬	-9.01134
索性	-9.01143
善	-9.01159
可怜	-9.01206
一阵	-9.01261
热闹	-9.01392
问他	-9.01492
横竖	-9.01669
因又	-9.01672
共	-9.01777
件	-9.01803
母亲	-9.01812
句	-9.02386
贾母等	-9.02425
姓	-9.02515
敬	-9.02558
斗	-9.02574
规矩	-9.02583
盛	-9.02596
粉	-9.02598
闻得	-9.02915
无奈	-9.02934
正经	-9.0313
吃茶	-9.03147
时常	-9.03163
不免	-9.03482
一夜	-9.03512
若说	-9.03517
众人道	-9.0363
久	-9.03716
在一处	-9.03734
并不	-9.0379
又道	-9.03938
丧	-9.03958
笔	-9.03976
丢了	-9.04017
因见	-9.04028
姨妈	-9.04058
一块	-9.04117
折	-9.04195
暂且	-9.04206
袭人等	-9.0423
撞	-9.04301
刚才	-9.04459
暗	-9.04475
国	-9.04835
度	-9.04859
不但	-9.05194
案	-9.05265
地下	-9.05279
疑	-9.05358
他的	-9.05445
景	-9.05531
娇	-9.05542
道理	-9.05547
料理	-9.0555
了几	-9.05585
未免	-9.05595
又不	-9.05717
一张	-9.05825
掩	-9.05845
没人	-9.0593
王夫人等	-9.06228
先生	-9.06431
请了	-9.06664
顺	-9.06711
小厮们	-9.06815
一番	-9.06851
况	-9.06886
太太们	-9.06923
大老爷	-9.06985
荣	-9.07002
保	-9.07004
大人	-9.07009
机	-9.07026
士隐	-9.07032
猜	-9.07035
这些人	-9.07089
打量	-9.07098
若不	-9.07265
当日	-9.07299
只好	-9.07562
宁	-9.07587
那日	-9.07732
竹	-9.07987
扶	-9.08134
七	-9.08216
美	-9.08234
真是	-9.08244
凤	-9.08307
痴	-9.08394
湘莲	-9.08425
净	-9.08484
听见了	-9.08514
叶	-9.08546
南	-9.08557
上去	-9.08576
矣	-9.08585
凉	-9.08603
想了一想	-9.08603
▁一时	-9.08756
四个	-9.08944
息	-9.09057
与他	-9.09148
我倒	-9.09157
胡	-9.09162
晚	-9.09349
古	-9.0947
心内	-9.09473
弟	-9.09601
赞	-9.09949
大奶奶	-9.09971
大事	-9.10012
忽然	-9.10136
台	-9.10138
微	-9.10138
绿	-9.10146
盖	-9.10153
争	-9.10167
催	-9.10171
园里	-9.10224
她的	-9.10257
了半日	-9.10532
院	-9.10532
到底是	-9.10586
舍	-9.1081
但是	-9.10958
条	-9.10963
可知	-9.11023
紧	-9.11141
奉	-9.11191
收了	-9.112
▁黛玉	-9.11284
你还	-9.11364
铺	-9.11461
嫁	-9.11571
幸	-9.11658
饮	-9.11666
穷	-9.11738
据	-9.11749
仔细	-9.1176
凤丫头	-9.11762
急得	-9.11771
宝姑娘	-9.11947
宝玉听说	-9.12007
遇见	-9.12126
男人	-9.1216
笑问	-9.12303
之人	-9.12477
站着	-9.12502
忍	-9.12651
场	-9.1266
之后	-9.12671
看看	-9.12732
论	-9.12807
二十	-9.13025
牌	-9.1319
痛	-9.1329
例	-9.13312
图	-9.13347
林之孝	-9.13348
近日	-9.13467
禁	-9.13549
恐怕	-9.13581
不出	-9.13665
荣府	-9.13752
出了	-9.13837
你要	-9.13847
不及	-9.14108
掷	-9.14132
小丫头子	-9.14323
说起	-9.14451
放下	-9.14481
须	-9.14595
房内	-9.14701
承	-9.14884
休	-9.15007
丝	-9.15033
究竟	-9.15082
兴儿	-9.15296
怀	-9.15464
除	-9.15468
醉	-9.15488
拿来	-9.15581
散了	-9.15648
也该	-9.15708
大了	-9.1584
睡了	-9.15938
太爷	-9.1605
有一	-9.16156
站	-9.16199
抱	-9.16364
吓	-9.16495
羞	-9.16496
这边	-9.16531
好歹	-9.16567
笑话	-9.1659
修	-9.16601
夹	-9.16664
抱怨	-9.1668
救	-9.16683
商量	-9.16685
告诉了	-9.1669
可惜	-9.167
照应	-9.1688
慢慢的	-9.16917
容	-9.16988
九	-9.172
一见	-9.17263
道士	-9.17358
天下	-9.1744
之意	-9.17463
就好了	-9.1768
去的	-9.1776
说什么	-9.17804
土	-9.17844
何必	-9.17852
刻	-9.17963
因为	-9.18027
居	-9.18224
阳	-9.18257
表	-9.18349
龙	-9.18355
翠	-9.18365
冯紫英	-9.18375
不像	-9.18495
出来了	-9.1858
跑了	-9.18815
脱	-9.18837
尚未	-9.18917
候	-9.18982
认得	-9.19033
之处	-9.1906
那一个	-9.19111
致	-9.1917
哄	-9.19174
府里	-9.19239
晚上	-9.19268
薛	-9.19629
你是	-9.1969
钟	-9.19732
帐	-9.19779
私	-9.19804
业	-9.19848
游	-9.19984
精	-9.20029
吹	-9.20041
宽	-9.20047
德	-9.20064
抢	-9.20068
雅	-9.20084
戴	-9.20091
杀	-9.20092
吐	-9.20102
编	-9.2011
仍旧	-9.20142
巧姐儿	-9.20236
你别	-9.20271
和你	-9.20329
之物	-9.20364
背	-9.20439
打点	-9.20474
取了	-9.20929
不住	-9.20978
探春道	-9.20998
一则	-9.21084
还说	-9.21171
写了	-9.21214
都说	-9.21242
那丫头	-9.21727
撒	-9.21743
在家里	-9.21746
眼睛	-9.2176
软	-9.21809
异	-9.21816
肉	-9.21836
烟	-9.21841
挨	-9.21852
彩云	-9.21906
虽不	-9.22042
只当	-9.2211
应了	-9.22248
地方	-9.22293
藏	-9.22318
的手	-9.22364
岂	-9.22409
病了	-9.22411
原来是	-9.22589
试	-9.22691
进了	-9.22698
年轻	-9.22736
宝玉忙	-9.22754
趁	-9.22791
遇	-9.22886
准	-9.2293
三人	-9.23087
跪下	-9.23134
位	-9.23209
打发人	-9.23268
交给	-9.23367
不禁	-9.23399
又向	-9.234
工夫	-9.2343
愈	-9.23438
肯	-9.23509
利	-9.23538
帘	-9.236
聚	-9.23626
鸡	-9.23627
拟	-9.23628
包勇	-9.23637
宝兄弟	-9.23641
六	-9.23696
岂知	-9.23723
好容易	-9.23758
光景	-9.23794
了好些	-9.2384
遭	-9.24012
我要	-9.24038
做了	-9.24187
便知	-9.24244
别说	-9.24297
探	-9.24471
说完	-9.24675
有趣	-9.24778
乡	-9.24778
园	-9.24791
自然是	-9.24814
座	-9.2492
还没	-9.24974
有一个	-9.25026
菊	-9.25124
言语	-9.25151
事情	-9.25285
怡红院	-9.25286
也好	-9.2532
垂	-9.25375
恶	-9.25379
寿	-9.25389
几年	-9.25396
号	-9.25414
杂	-9.25448
夺	-9.25471
风流	-9.25488
听下回	-9.25542
二姐	-9.25583
只顾	-9.25856
不该	-9.25891
果子	-9.25921
两日	-9.25931
犯	-9.26038
参	-9.26065
干净	-9.26179
爷们	-9.26305
辞	-9.2642
便向	-9.26501
了一声	-9.26576
罚	-9.26722
什么事	-9.26731
不去	-9.26912
剩	-9.27043
莫	-9.27052
旁边	-9.27089
庙	-9.2709
食	-9.2727
一径	-9.27311
叫了	-9.27421
门上	-9.27484
一位	-9.27496
十二	-9.28046
料	-9.2814
就有	-9.2828
不便	-9.28313
和她	-9.28323
站起来	-9.28429
双	-9.28504
我知道	-9.28551
意思	-9.28647
枝	-9.2865
你只	-9.28655
下回	-9.28708
也不能	-9.28942
不言语	-9.28997
约	-9.29005
真真	-9.29025
穿著	-9.29123
昏	-9.29166
尘	-9.29167
回身	-9.29167
红了脸	-9.29173
挪	-9.29181
抓	-9.29206
磕头	-9.29228
旺儿	-9.29236
请了安	-9.29248
愿意	-9.29291
各色	-9.29297
就走	-9.29342
或者	-9.29393
一点儿	-9.29474
大太太	-9.29551
儿的	-9.29603
便要	-9.29624
众人听了	-9.29732
抄	-9.29856
下去	-9.30124
体	-9.30136
作了	-9.30144
听见说	-9.30243
我只	-9.30325
旁	-9.30372
三个	-9.30485
枕	-9.30493
就要	-9.30723
皆是	-9.3079
本来	-9.30866
和他	-9.30995
顶	-9.31019
妥当	-9.31023
淡	-9.31028
贴	-9.31073
吟	-9.31077
厚	-9.31089
投	-9.31091
说笑	-9.31098
观	-9.31099
口里	-9.31101
怒	-9.3111
松	-9.31112
弱	-9.31118
叙	-9.31125
免	-9.31189
上了	-9.31288
了出来	-9.31299
父亲	-9.31388
自去	-9.31501
而已	-9.31552
这件事	-9.31584
一顿	-9.31595
早起	-9.3168
人去	-9.318
的心	-9.31918
我去	-9.32275
在话	-9.32429
盆	-9.3261
了么	-9.32635
奏	-9.32981
或是	-9.33026
要走	-9.33034
袖	-9.33047
瓶	-9.33056
赐	-9.33064
船	-9.33091
文章	-9.33093
制	-9.33105
又叫	-9.33148
替我	-9.33168
想到	-9.33259
拉了	-9.33277
给了	-9.33296
故意	-9.33298
唬得	-9.33353
既是	-9.33402
下了	-9.33436
把我	-9.33581
坏了	-9.3364
老太太的	-9.33641
古人	-9.33714
▁贾政	-9.33863
胡说	-9.34085
那婆子	-9.34341
看他	-9.34364
或有	-9.34635
一应	-9.34762
辈	-9.34816
我看	-9.34822
门前	-9.34845
太监	-9.34976
代儒	-9.35012
韵	-9.35077
卧	-9.35079
忽听	-9.3511
丫鬟们	-9.35149
两边	-9.35211
使得	-9.3525
那样	-9.35306
惟有	-9.35334
你倒	-9.35345
头儿	-9.35481
死的	-9.3552
屋子	-9.36148
仍是	-9.36175
又不好	-9.36186
何不	-9.3639
听着	-9.36447
倒也	-9.36491
’‘	-9.36776
惟	-9.3681
形	-9.37033
来瞧	-9.37058
泥	-9.37067
君	-9.37113
顾	-9.3712
卷	-9.3712
利害	-9.37122
王爷	-9.37129
娘娘	-9.37164
赌气	-9.37196
告诉我	-9.37244
再说	-9.37252
一面又	-9.37288
嘴里	-9.37316
二字	-9.37525
之间	-9.37615
门口	-9.3762
仗着	-9.37651
指着	-9.37722
▁凤姐	-9.3774
贾府	-9.37818
凤姐听了	-9.37855
放了	-9.37869
去呢	-9.38106
四人	-9.38116
孙	-9.38116
了不得	-9.38165
生得	-9.38287
不着	-9.38306
明白了	-9.38353
问你	-9.38476
熟	-9.38521
▁却说	-9.38622
又恐	-9.38714
剪	-9.38759
骂道	-9.38902
这么着	-9.38911
曲	-9.38937
不怕	-9.39025
功	-9.39053
把那	-9.39079
避	-9.39086
左	-9.39088
怜	-9.39089
毛	-9.39112
抹	-9.39167
锁	-9.39169
吊	-9.39171
诧异	-9.3918
鼓	-9.39196
女孩子	-9.39218
气得	-9.39247
角	-9.39282
妹子	-9.39365
晚间	-9.39469
之时	-9.39536
错了	-9.3955
拿出	-9.3969
得罪了	-9.39917
你老人家	-9.39978
止	-9.39983
是什么	-9.40174
历	-9.40175
一条	-9.40232
的病	-9.40436
只因	-9.40522
无事	-9.40596
奴	-9.40776
圣	-9.40944
扇	-9.40997
镜	-9.41052
靠	-9.41055
兰	-9.41075
压	-9.41148
值	-9.41162
巧姐	-9.41177
翠缕	-9.4127
沉	-9.41287
懒	-9.41289
粗	-9.41302
一辈子	-9.41306
蒙	-9.4131
元妃	-9.41312
北静王	-9.41314
线	-9.41319
针	-9.41321
持	-9.41328
倚	-9.41328
虽有	-9.41336
舅舅	-9.4134
野	-9.41362
亲友	-9.41389
姑奶奶	-9.41427
一会子	-9.41539
惹	-9.4178
我这里	-9.41815
骨	-9.41971
好姐姐	-9.42069
碰	-9.42162
自己的	-9.42278
起来了	-9.4228
吃的	-9.42422
丢	-9.42579
城	-9.42744
不同	-9.42802
》,	-9.42883
因说	-9.42897
又怕	-9.43061
姑	-9.43076
法儿	-9.43227
次日	-9.43237
逼	-9.43255
社	-9.4335
从前	-9.4337
陪着	-9.43405
师父	-9.43439
星	-9.43443
造	-9.43459
委屈	-9.43461
氏	-9.43488
刀	-9.43492
富贵	-9.43499
灰	-9.43503
汉	-9.4352
更加	-9.43623
丰儿	-9.43626
帮着	-9.43665
使不得	-9.4379
不说	-9.43994
从此	-9.44017
一行	-9.44038
带领	-9.44058
各人	-9.44087
公子	-9.44112
自有	-9.44212
渐渐的	-9.4444
见是	-9.44514
误	-9.4452
男	-9.44764
念书	-9.448
哭道	-9.45042
除了	-9.45106
花儿	-9.45123
把这	-9.45164
咱们家	-9.45196
放在	-9.45273
如此说	-9.45277
祖	-9.45336
跳	-9.45386
史	-9.45449
缘	-9.45473
并无	-9.45556
琴	-9.45559
站在	-9.45605
退出	-9.45616
迹	-9.45637
扫	-9.45638
专	-9.45681
背地里	-9.457
师	-9.45702
王二夫人	-9.45704
邪	-9.45736
护	-9.45737
进入	-9.45832
睡觉	-9.45833
他两个	-9.45973
你去	-9.46035
宁府	-9.46036
陪笑	-9.46058
比不得	-9.46234
一口	-9.4625
反倒	-9.46745
迷	-9.46745
是我	-9.46887
下人	-9.46895
刘姥姥道	-9.4706
到那里	-9.47099
放着	-9.47143
急忙	-9.47188
咽	-9.47315
住着	-9.4742
也难	-9.47434
大小	-9.47483
怪道	-9.4749
父	-9.47529
停	-9.47553
上的	-9.47609
一半	-9.47641
禀	-9.47647
薄	-9.4778
暂	-9.47824
又不敢	-9.4784
滚	-9.47945
芳	-9.47969
的意思	-9.47977
又将	-9.47984
减	-9.47989
米	-9.47989
孤	-9.47992
偶	-9.47995
愧	-9.48011
淫	-9.48014
彼此	-9.48016
撂	-9.48022
操心	-9.48067
也不知	-9.48075
三日	-9.48076
认真	-9.48191
扇子	-9.48239
却也	-9.48342
作诗	-9.48464
个人	-9.48489
三四	-9.48685
近来	-9.48713
见贾母	-9.48843
说我	-9.48879
动了	-9.48999
忘	-9.4905
得很	-9.49184
也罢	-9.49204
回来了	-9.49417
后面	-9.49562
你不	-9.49656
遍	-9.49789
怎么不	-9.49903
头上	-9.49948
此事	-9.49959
庄	-9.49969
司	-9.50013
瞒	-9.50023
来回	-9.50036
空儿	-9.50062
我这	-9.50118
负	-9.50272
毒	-9.50289
宝玉便	-9.50296
奔	-9.50304
屏	-9.50308
从小儿	-9.50322
歌	-9.50324
乘	-9.50325
呀	-9.50334
启	-9.50338
一定	-9.50386
一把	-9.50387
贾母听了	-9.50394
吃了饭	-9.50416
在旁	-9.50726
限	-9.50973
每人	-9.51028
着了	-9.51039
也不好	-9.51101
十个	-9.51171
湘云笑道	-9.51219
害	-9.51399
一首	-9.51408
不好了	-9.51412
房子	-9.515
便把	-9.51508
送去	-9.51509
口内	-9.51628
细细	-9.51811
这日	-9.5183
疏	-9.51894
换了	-9.51927
急了	-9.52023
底	-9.52194
了半天	-9.52239
珍	-9.52401
切	-9.52446
悄	-9.5245
酸	-9.5251
角门	-9.52576
有话	-9.52628
账	-9.52664
老嬷嬷	-9.52674
签	-9.52685
消	-9.52688
紫	-9.52688
存	-9.5269
裁	-9.52692
擦	-9.52702
缠	-9.52703
斤	-9.52709
移	-9.52712
济	-9.52719
霜	-9.5272
残	-9.52725
两句	-9.52733
而去	-9.52741
金钏儿	-9.52757
使唤	-9.52835
这一个	-9.5306
进来了	-9.53281
再者	-9.53539
受了	-9.53569
也不知道	-9.53852
几天	-9.53882
已是	-9.53896
桌	-9.53923
让我	-9.53958
炕上	-9.5397
并不是	-9.54225
打开	-9.54236
夫	-9.54246
留着	-9.54337
人的	-9.54386
迟了	-9.54464
你可	-9.54514
一一	-9.54675
择	-9.54756
的小	-9.54849
告诉你	-9.54955
潇湘馆	-9.54956
来问	-9.54965
袄	-9.54972
工	-9.55027
室	-9.55033
尊	-9.55064
掌	-9.55069
右	-9.5507
她去	-9.5508
特	-9.55086
嗳哟	-9.55088
了一会	-9.55108
监	-9.55118
悟	-9.55122
阿弥陀佛	-9.55129
顽	-9.55132
拈	-9.55136
艳	-9.55139
送到	-9.55149
寄	-9.55155
进京	-9.55175
即刻	-9.55177
立刻	-9.55186
柳家的	-9.552
低头	-9.55209
’。	-9.55373
日后	-9.55382
未必	-9.55418
一头	-9.55421
同着	-9.55526
那些人	-9.55588
要去	-9.5559
我们的	-9.55594
不防	-9.55631
不好意思	-9.55632
闲话	-9.55637
为人	-9.55641
上下	-9.5566
必定	-9.55731
歇	-9.55775
听听	-9.55888
这会子又	-9.5589
一笑	-9.55903
小红	-9.55935
孩子	-9.55957
这些话	-9.55997
三姑娘	-9.56009
行事	-9.56031
知是	-9.5607
得好	-9.5609
再不	-9.56311
嘱咐	-9.56332
子来	-9.56351
我不	-9.56436
说话儿	-9.56575
你快	-9.56822
眼泪	-9.5688
器	-9.56984
上房	-9.57022
人多	-9.57119
日子	-9.57261
墨	-9.57522
祖宗	-9.57611
弃	-9.57614
针线	-9.57614
玉钏儿	-9.5762
职	-9.57622
败	-9.57625
鱼	-9.57632
四五	-9.57645
浪	-9.5765
张华	-9.57661
偶然	-9.57665
仰	-9.57665
安慰	-9.57675
淘气	-9.57686
余者	-9.57749
抬头	-9.57858
说着便	-9.57956
偏生	-9.58017
宝钗等	-9.58148
何处	-9.58177
既这样	-9.58189
你怎么	-9.58192
在内	-9.58212
一百	-9.58351
这几年	-9.58421
闹了	-9.58654
一边	-9.58872
歇息	-9.58886
睡下	-9.58979
送来	-9.59075
闹的	-9.59184
的日子	-9.59337
赶忙	-9.59339
走至	-9.59383
拿去	-9.5941
一层	-9.59433
板	-9.59662
跪	-9.59662
班	-9.59758
不会	-9.59795
块	-9.59824
想是	-9.59901
搭	-9.59924
笼	-9.59926
劳	-9.59987
拦	-9.60027
赌	-9.60036
登	-9.60071
很好	-9.60099
泣	-9.60154
施	-9.60158
读	-9.60163
臊	-9.6017
腿	-9.60172
名儿	-9.60185
胎	-9.60189
呼	-9.6019
牙	-9.60191
遗	-9.60192
周瑞	-9.60203
啊	-9.60212
亡	-9.60218
透	-9.6023
不自在	-9.60232
捆	-9.60238
怨不得	-9.60246
倪二	-9.60298
要知端	-9.60301
幸而	-9.60306
使人	-9.60369
银钱	-9.60389
照管	-9.60417
有几个	-9.60428
一会	-9.60703
你且	-9.60729
他说	-9.60858
晚饭	-9.60911
梳洗	-9.60916
能够	-9.61054
体面	-9.61084
若有	-9.61175
这也	-9.61229
摇	-9.61457
里的	-9.61605
悄悄	-9.61618
伸手	-9.61674
舌	-9.61909
你先	-9.61924
众人都道	-9.61964
不到	-9.62106
▁贾母	-9.62163
须得	-9.62275
在屋里	-9.62284
架	-9.62315
喝了	-9.62322
袭	-9.62388
搀	-9.62411
傻	-9.62443
欢喜	-9.62451
胆	-9.62461
小心	-9.6255
我有	-9.62582
炉	-9.62665
暖	-9.62701
告诉她	-9.62711
熬	-9.6277
勉强	-9.62777
货	-9.62793
期	-9.62802
北	-9.62834
早有	-9.6285
宗	-9.62855
▁说着	-9.62874
贾政听了	-9.62922
聪明	-9.62928
环儿	-9.62957
第	-9.63047
站住	-9.63102
说明	-9.63124
新鲜	-9.63136
四字	-9.63151
晴雯道	-9.63164
哥	-9.63172
有理	-9.63285
怎么样呢	-9.633
辞了	-9.63416
替你	-9.63518
必要	-9.63531
哭了	-9.63647
生日	-9.63828
玩笑	-9.63936
今见	-9.63937
妥	-9.64083
一步	-9.64097
与宝玉	-9.64151
问问	-9.64274
当下	-9.64318
些什么	-9.64396
那么	-9.64519
一路	-9.64749
法子	-9.64856
独有	-9.64889
不放心	-9.65007
所有	-9.65095
我也不	-9.65166
僧	-9.65228
堆	-9.6527
妹	-9.6529
这般	-9.6535
桃	-9.65421
视	-9.6543
罗	-9.65507
严	-9.6552
格	-9.65524
武	-9.65529
了一遍	-9.65531
圆	-9.65531
幽	-9.6554
孝敬	-9.65542
尤三姐	-9.65543
疑惑	-9.65547
幸亏	-9.65555
稍	-9.65557
贾妃	-9.65569
李嬷嬷	-9.65573
坠儿	-9.65626
弟兄	-9.65633
神仙	-9.65656
这么说	-9.6566
瞅着	-9.65686
倒像	-9.65693
名唤	-9.65716
大约	-9.65811
告辞	-9.65823
拿出来	-9.65985
依我说	-9.65986
宝玉又	-9.66012
等事	-9.66026
会意	-9.66183
守着	-9.66183
贾家	-9.66264
过去了	-9.66318
又不是	-9.66391
那和尚	-9.66415
虽说	-9.66417
女子	-9.66469
叫她们	-9.66587
本是	-9.66838
撵	-9.66911
来往	-9.66918
都在	-9.66938
炕	-9.67038
倒好	-9.67061
?“	-9.67124
厅	-9.67249
桌上	-9.67258
还得	-9.67375
在此	-9.67402
二哥哥	-9.67435
大的	-9.67461
并没	-9.67548
都不	-9.67608
女孩儿	-9.6767
园内	-9.67702
你这	-9.67741
侍	-9.67942
来找	-9.67957
伏	-9.6797
病着	-9.68027
往前	-9.68054
喊	-9.68125
狗	-9.68143
大观园	-9.68217
密	-9.68223
整	-9.68246
置	-9.68253
撕	-9.68268
汗	-9.68273
贫	-9.68276
冲	-9.6829
属	-9.68292
扭	-9.68294
冰	-9.68297
祸	-9.68302
定要	-9.68307
妾	-9.68315
颜色	-9.68318
王仁	-9.68323
泼	-9.68326
栏	-9.68326
河	-9.68338
鲍二	-9.68341
逛逛	-9.68345
巴不得	-9.6835
后悔	-9.68373
伤感	-9.68377
精神	-9.68404
板儿	-9.68537
交与	-9.68542
诸事	-9.68555
叫他们	-9.68566
婆婆	-9.68566
你来	-9.68577
一并	-9.68627
几次	-9.6864
见人	-9.68758
待要	-9.68823
轻轻的	-9.68884
甄宝玉	-9.68924
茶来	-9.69004
而且	-9.69006
夫人	-9.69049
务	-9.69174
口气	-9.69267
去后	-9.69318
一件事	-9.6932
上学	-9.69356
疾	-9.69607
来请	-9.69718
赶来	-9.69846
外人	-9.69876
为的是	-9.69888
不理	-9.6989
不多	-9.69959
一同	-9.70037
醒了	-9.70096
忙着	-9.70236
才刚	-9.70253
一瞧	-9.70273
记得	-9.7034
门外	-9.70372
所有的	-9.70376
也曾	-9.70391
还好	-9.70455
细细的	-9.70471
既这么	-9.70505
混说	-9.70538
倒要	-9.70622
?’	-9.70644
倒不	-9.70664
杏	-9.70734
悬	-9.70758
门子	-9.70769
遣	-9.70791
的主意	-9.70818
天气	-9.70901
乃是	-9.70941
量	-9.70993
执	-9.71049
族	-9.71051
问我	-9.7107
挽	-9.71096
粥	-9.7112
吉	-9.71129
劫	-9.71132
义	-9.71137
易	-9.71144
姑妈	-9.71155
排	-9.71156
虎	-9.71166
占	-9.71168
藕官	-9.71193
殿	-9.71195
采	-9.71195
昨夜	-9.71197
秋桐	-9.71197
......”	-9.71204
助	-9.7121
偏又	-9.71279
金荣	-9.71294
忙忙的	-9.71308
打发人来	-9.71313
喝酒	-9.71391
这么大	-9.71461
令人	-9.71556
但只	-9.71558
省得	-9.71626
我听见	-9.71777
我再	-9.71787
这位	-9.718
就不	-9.71828
的好	-9.7199
名字	-9.72084
一碗	-9.72339
这可	-9.72421
没的	-9.72422
不懂	-9.72557
一下	-9.7258
就只	-9.7277
照看	-9.73096
没个	-9.73287
说出	-9.73325
与她	-9.73381
说她	-9.73461
碍	-9.73581
不听	-9.73584
吵	-9.73596
他二人	-9.73667
问了	-9.73771
咳嗽	-9.73775
户	-9.73794
歪	-9.73855
裙	-9.73865
好事	-9.73917
担	-9.73963
梅	-9.73977
赔	-9.74
元	-9.74017
仁	-9.74039
察	-9.74062
搜	-9.74065
鞋	-9.74072
财	-9.74074
扶着	-9.74086
温	-9.74086
宅	-9.74095
朋友	-9.74106
江	-9.74107
贾芹	-9.74108
摸	-9.74111
始	-9.74116
忙说	-9.7412
夫妻	-9.7412
桥	-9.74123
局	-9.74125
肝	-9.74125
烂	-9.74138
升	-9.74139
春燕	-9.74144
也未可知	-9.7415
琏二爷	-9.74176
的光景	-9.74292
捧着	-9.74377
没意思	-9.74458
行礼	-9.74482
办事	-9.7459
便宜	-9.74595
不上	-9.74649
你只管	-9.74694
京	-9.74762
惜春道	-9.74814
看来	-9.74839
味	-9.75084
迟	-9.75139
我原	-9.75226
▁贾琏	-9.7525
之心	-9.75251
着实	-9.75262
品	-9.75264
捧	-9.75294
大红	-9.75318
老娘	-9.75377
时候	-9.75432
了多少	-9.75443
哭着	-9.75527
忙命	-9.75534
也不必	-9.75576
没法	-9.75648
几日	-9.75685
一想	-9.75845
黛玉听了	-9.75858
防	-9.75953
胜	-9.75961
倒茶	-9.76094
的一声	-9.76152
拘	-9.76383
壁	-9.7643
那里去	-9.76583
说他	-9.76634
宜	-9.7667
搁	-9.76827
环	-9.76839
爷爷	-9.76872
惜	-9.7694
悔	-9.76957
伴	-9.76994
不认得	-9.77005
自为	-9.77018
亮	-9.77059
爬	-9.77064
曰	-9.77083
扯	-9.77087
貌	-9.77098
扬	-9.77113
审	-9.77116
插	-9.7712
题目	-9.77124
证	-9.77126
硬	-9.77127
哀	-9.77128
摔	-9.77134
横	-9.7714
符	-9.77157
饮食	-9.77165
考	-9.77167
笑了	-9.77213
执事	-9.7728
在地下	-9.77289
含	-9.77341
转过	-9.77383
吓得	-9.77454
明年	-9.77481
一次	-9.77495
他去	-9.77704
就好	-9.77765
等语	-9.77769
安歇	-9.77789
开门	-9.77848
不起	-9.77853
的事情	-9.77914
何苦来	-9.77962
这些东西	-9.78127
这么个	-9.78148
几时	-9.78149
之声	-9.78172
这不是	-9.782
让坐	-9.78204
她是	-9.78231
趣	-9.78234
这种	-9.78409
有何	-9.78446
早些	-9.78478
并没有	-9.78493
一心	-9.78511
道是	-9.78698
也得	-9.7875
在里头	-9.78751
几句	-9.78883
话儿	-9.78914
士	-9.78941
夜里	-9.78952
两三个	-9.79036
这些事	-9.79081
谁家	-9.79152
见问	-9.79248
老婆	-9.79271
那年	-9.79339
音	-9.7941
念道	-9.79428
他母亲	-9.79538
替她	-9.79682
一带	-9.79784
别处	-9.7979
再来	-9.79804
才要	-9.79821
里间	-9.79895
我和	-9.79912
园子	-9.79913
计	-9.79916
街	-9.7997
帮	-9.80042
访	-9.80113
医	-9.80163
索	-9.80194
友	-9.80198
华	-9.80201
南边	-9.80207
他父亲	-9.80212
隐	-9.80217
速	-9.80246
赵	-9.80262
式	-9.80267
批	-9.80269
朱	-9.80271
尸	-9.80272
坛	-9.80278
荣国府	-9.80283
纳闷	-9.80292
贤	-9.80294
选	-9.80304
金陵	-9.80311
模样儿	-9.80343
奇怪	-9.80365
登时	-9.80385
彼时	-9.80412
忽然想起	-9.80429
是她	-9.80443
就说	-9.80498
大哥	-9.80506
逛	-9.80543
一月	-9.80644
出来的	-9.80648
一味	-9.80661
等物	-9.80746
两处	-9.80856
▁原来	-9.80873
不出来	-9.80968
去找	-9.80982
诸人	-9.81079
不尽	-9.8112
揭	-9.8116
饿	-9.81281
所以我	-9.81303
识	-9.81314
添了	-9.81335
还没有	-9.81407
就在	-9.81432
故事	-9.81461
自从	-9.81611
输了	-9.81616
替他	-9.81641
打算	-9.81652
婆子们	-9.81661
园子里	-9.81694
梅花	-9.81785
舅	-9.81868
人物	-9.81931
吃过	-9.81975
▁一日	-9.81981
怎么说	-9.81982
多心	-9.82029
头发	-9.82035
正自	-9.82075
气的	-9.82115
屋	-9.82117
这样的	-9.82135
以为	-9.82275
只见宝玉	-9.82277
一一的	-9.82356
瞧了	-9.82386
这病	-9.8271
也不是	-9.82753
我又	-9.82802
那是	-9.82947
亭	-9.82953
不知是	-9.83226
册	-9.83237
更好	-9.83315
彼	-9.83322
知道的	-9.83354
旨	-9.83394
追	-9.83431
款	-9.83433
焚	-9.83436
作主	-9.83436
伸	-9.83441
铁	-9.83451
怄	-9.83458
不妨	-9.83458
忧	-9.83469
蟹	-9.83473
咏	-9.83481
赎	-9.83482
凶	-9.83492
琏二奶奶	-9.83492
砸	-9.83493
匾	-9.83498
冠	-9.83503
绕	-9.83521
百般	-9.83521
何况	-9.83529
多早晚	-9.83531
都要	-9.83535
进城	-9.83552
那宝玉	-9.83576
女婿	-9.83609
几个人	-9.83653
拦住	-9.83657
庙里	-9.83667
正值	-9.83669
箱子	-9.83763
他家	-9.83831
。’”	-9.83914
这几日	-9.83924
我先	-9.84027
我们家	-9.84036
她两个	-9.84107
恰好	-9.84146
美人	-9.84261
这两日	-9.84297
弄了	-9.84393
好处	-9.84464
▁凤姐儿	-9.84478
可见	-9.84678
不忍	-9.84914
勾	-9.84958
都知道	-9.84993
是要	-9.85011
因而	-9.8502
快快	-9.85092
二百	-9.85166
没脸	-9.85174
王夫人听了	-9.85254
一杯	-9.85293
无话	-9.85364
他就	-9.85389
容易	-9.85395
回明	-9.85411
一早	-9.85412
的钱	-9.85751
写道	-9.85775
你瞧瞧	-9.85872
睡去	-9.85968
我们奶奶	-9.86034
看见了	-9.86079
饭后	-9.86085
何苦	-9.8609
你既	-9.86181
也算	-9.86228
妻	-9.8632
呈	-9.86321
厅上	-9.86368
那边去	-9.86391
便往	-9.86393
两个字	-9.86423
溜	-9.86444
围	-9.86454
肠	-9.86496
怕什么	-9.86531
象	-9.86532
姑子	-9.86534
皇	-9.86537
不愿意	-9.8656
糊	-9.86717
效	-9.86791
嚼	-9.86804
瞎	-9.86806
布	-9.86807
评	-9.86814
洋	-9.86815
刺	-9.86819
痕	-9.8682
不错	-9.86822
渐	-9.86822
倦	-9.86824
村	-9.86825
辛苦	-9.86825
鸟	-9.86826
沾	-9.86832
盼	-9.86833
荷包	-9.86833
积	-9.86834
攒	-9.86835
王善保家的	-9.86838
呆呆的	-9.86839
剑	-9.86846
赤	-9.86847
张罗	-9.8685
知县	-9.8687
清楚	-9.86877
珍大爷	-9.86878
一样的	-9.86919
桂花	-9.8692
不料	-9.86932
二位	-9.86946
日夜	-9.8698
为什么不	-9.87024
好不好	-9.87117
孙子	-9.87135
惯	-9.87139
的工夫	-9.87172
无可	-9.87401
便走	-9.87494
打死	-9.87516
手内	-9.87541
回去了	-9.87557
复又	-9.87629
一枝	-9.87655
我可	-9.87677
未知	-9.8769
其中	-9.87709
就该	-9.87763
书房	-9.87908
十六	-9.88002
收着	-9.88025
好妹妹	-9.88133
四十	-9.88163
当着	-9.88201
随便	-9.88365
众姊妹	-9.88376
睡着了	-9.88421
他便	-9.88559
小事	-9.88569
不用说	-9.88821
都笑道	-9.88925
在哪里	-9.88959
奶奶们	-9.88967
派了	-9.89006
一事	-9.89047
而来	-9.89216
半天	-9.8939
何等	-9.89426
帖	-9.89549
何曾	-9.89633
腰	-9.89633
小子	-9.89648
披	-9.8975
生事	-9.89778
不足	-9.89813
之中	-9.89834
因向	-9.89839
够	-9.89842
三十	-9.89926
见凤姐	-9.89961
便起身	-9.90008
榻	-9.90023
屋内	-9.90024
运	-9.90036
自己也	-9.90063
瓜	-9.90075
几件	-9.90082
志	-9.90124
用手	-9.90157
池	-9.90188
更觉	-9.9019
海棠	-9.90228
累	-9.90236
续	-9.90238
蕉	-9.90241
又没	-9.90252
吾	-9.90254
扑	-9.90258
良	-9.9026
贪	-9.90261
脉	-9.90272
忒	-9.90275
烛	-9.90279
填	-9.90286
雷	-9.90288
央告	-9.90295
恍惚	-9.90295
民	-9.90296
忠	-9.903
蒋玉菡	-9.903
列	-9.903
背后	-9.90307
脾气	-9.90308
宝丫头	-9.90385
母女	-9.90389
前头	-9.90398
左右	-9.90406
留神	-9.90434
这就是	-9.90488
又说道	-9.90518
金银	-9.90521
叫作	-9.90628
搁在	-9.90634
一手	-9.90677
可笑	-9.90684
后头	-9.90688
手帕子	-9.90728
意欲	-9.90779
不安	-9.90793
斟	-9.90798
也太	-9.90838
取笑	-9.90924
我虽	-9.91045
你哥哥	-9.91074
离了	-9.9109
我告诉你	-9.91149
三个人	-9.91168
那里知道	-9.91272
儿女	-9.91343
要打	-9.91402
几个钱	-9.9142
不是我	-9.91484
我的心	-9.91583
和宝玉	-9.91608
八九	-9.91614
说出来	-9.91658
我替你	-9.91724
大门	-9.91756
两个婆子	-9.91951
心上	-9.91961
得意	-9.92021
误了	-9.92128
没趣	-9.92199
你瞧	-9.9222
看去	-9.9241
还有什么	-9.92414
相见	-9.92554
便命人	-9.9257
我如今	-9.92662
坏	-9.92685
院中	-9.92703
打发了	-9.92756
明知	-9.92795
你看	-9.92936
总不	-9.92971
夏	-9.93062
又听	-9.93124
怎么就	-9.93325
愚	-9.93458
姨	-9.93507
男女	-9.93533
那里去了	-9.93549
晓	-9.9356
族中	-9.93624
’。”	-9.93646
拐	-9.93676
操	-9.93703
低	-9.93709
下面	-9.93721
壶	-9.93725
央	-9.93774
寸	-9.9378
二叔	-9.93781
固	-9.93789
褥	-9.93792
丸	-9.93798
贺	-9.93804
箸	-9.93812
警幻	-9.93823
井	-9.93824
乖	-9.93824
洞	-9.93828
灌	-9.93832
达	-9.93833
享	-9.93838
庭	-9.93843
诚	-9.93845
永	-9.9385
议论	-9.93852
闺	-9.93858
荡	-9.93858
娘儿们	-9.93863
形容	-9.93863
衾	-9.93864
伶俐	-9.93869
调唆	-9.93871
棚	-9.93874
讲究	-9.93878
半晌	-9.93882
一概不	-9.93899
由不得	-9.93912
一二	-9.93927
取乐	-9.93949
烦恼	-9.93958
侍书	-9.93959
听如此说	-9.9398
甄家	-9.93997
够了	-9.94006
想不到	-9.94006
妃	-9.94159
见我	-9.9431
进内	-9.94392
明儿再	-9.9442
劝解	-9.94467
这也是	-9.94494
天地	-9.94516
两件	-9.94565
就来	-9.94565
大嫂子	-9.94648
只在	-9.94824
不受用	-9.9483
▁众人	-9.94836
媳妇们	-9.9492
一段	-9.9496
就把	-9.94968
有许多	-9.95041
不动	-9.95048
这等	-9.95085
惯了	-9.95135
瞧着	-9.95163
没听见	-9.953
主人	-9.95448
我心里	-9.95562
一根	-9.95765
一对	-9.95882
回房	-9.95901
找了	-9.95932
与贾母	-9.95933
连日	-9.96034
犯了	-9.96097
不算	-9.96106
石头	-9.96201
携	-9.9624
难得	-9.96272
脏	-9.96321
都有	-9.96338
哪一个	-9.9634
不止	-9.96435
群	-9.96588
转身	-9.96638
脸面	-9.96663
只听见	-9.96677
看戏	-9.96803
准了	-9.96804
她就	-9.96828
无法	-9.96898
顿	-9.96907
一大	-9.96909
▁次日	-9.97025
送至	-9.97026
的名字	-9.97032
盒	-9.97159
忙上来	-9.97181
依我	-9.97206
是我的	-9.97258
人等	-9.97316
果见	-9.97387
阶	-9.97446
冬	-9.97466
往后	-9.97479
献	-9.97489
咒	-9.97493
厌	-9.97513
演	-9.97522
秀	-9.97526
耍	-9.97531
妖	-9.97532
典	-9.97534
挤	-9.97534
扣	-9.97537
事来	-9.9754
点点头儿	-9.97542
寂寞	-9.97546
钓	-9.97548
具	-9.97552
嘱	-9.97553
染	-9.97557
注	-9.97559
蹲	-9.97561
遮	-9.97565
射	-9.97567
贵妃	-9.97567
笑嘻嘻的	-9.97572
羊	-9.97572
李十儿	-9.97575
禄	-9.97578
姑爷	-9.97584
这倒	-9.97612
拾	-9.97647
深知	-9.97648
尤氏笑道	-9.97673
他又	-9.9768
往里	-9.97701
罢咧	-9.97701
胡涂了	-9.97707
终身	-9.97723
看得	-9.97771
若论	-9.97819
那僧	-9.97827
满面	-9.97834
帖儿	-9.97838
外头的	-9.97897
一片	-9.97917
告诉他	-9.98016
月钱	-9.9803
喜得	-9.98207
薛宝钗	-9.9823
你两个	-9.98239
后日	-9.98288
拿起	-9.98392
拉住	-9.98416
倒了	-9.98416
便忙	-9.98472
不吃	-9.985
果真	-9.98642
窗外	-9.98666
有几	-9.98666
说罢	-9.98687
手中	-9.98769
旨意	-9.98872
了许多	-9.99061
尽了	-9.99176
一说	-9.99316
得住	-9.99341
两天	-9.99612
有什么事	-9.99806
桌子	-9.99841
▁宝钗	-9.99968
可不	-10.0004
衙门	-10.0009
笑向	-10.0012
降	-10.0014
来瞧瞧	-10.0022
鲜	-10.0025
也便	-10.0033
醉了	-10.0035
问起	-10.0035
此刻	-10.0036
回到	-10.0042
堪	-10.0044
既如此	-10.0053
外边	-10.0058
我父亲	-10.0058
老人家	-10.0062
抽	-10.0062
一直	-10.0063
倘	-10.0064
最是	-10.007
领了	-10.0083
睡着	-10.0088
片	-10.0089
不见了	-10.0102
什么东西	-10.0111
含笑	-10.0112
箱	-10.0114
缎	-10.0117
倒有	-10.0118
桂	-10.0119
李贵	-10.0121
显	-10.0121
冤	-10.0128
田	-10.0129
尝	-10.0131
磕	-10.0132
牛	-10.0133
夸	-10.0134
你若	-10.0134
述	-10.0136
恕	-10.0137
腻	-10.0137
捶	-10.0137
绵	-10.0138
姥姥	-10.0138
腮	-10.0139
末	-10.0139
赋	-10.0139
权	-10.014
邀	-10.014
见王夫人	-10.014
夕	-10.014
一家子	-10.0141
尺	-10.0141
李纹	-10.0141
俊	-10.0141
唐	-10.0141
(	-10.0141
宁国府	-10.0142
叠	-10.0142
)	-10.0142
撒谎	-10.0143
李氏	-10.0145
一本	-10.0145
记挂着	-10.0149
请老太太	-10.0149
每每	-10.015
夜间	-10.0151
桃花	-10.0157
恼了	-10.0157
那孩子	-10.0161
以及	-10.0163
盒子	-10.0163
先前	-10.0167
性情	-10.0168
了一会子	-10.017
啐道	-10.017
了一夜	-10.0177
两口	-10.0184
细想	-10.0186
▁当下	-10.0186
一个小	-10.0197
回家去	-10.02
眼前	-10.0204
又想	-10.0204
▁湘云	-10.0206
那府里	-10.0207
原该	-10.0208
递	-10.0208
至于	-10.0211
七八	-10.0212
你们的	-10.0212
四姑娘	-10.0213
只求	-10.0218
怔	-10.022
摇头	-10.0229
忙起身	-10.0235
不堪	-10.0238
安心	-10.0239
的样子	-10.0239
就忘了	-10.0249
二老爷	-10.0263
不解	-10.0283
让他	-10.0285
十五	-10.0288
之外	-10.0292
个主意	-10.0293
便和	-10.0299
命他	-10.0304
两银子	-10.0332
赏了	-10.0346
生的	-10.0354
不中用	-10.0356
是何	-10.0372
第一	-10.0379
看那	-10.0388
第二	-10.0391
房门	-10.0398
微微	-10.0409
跑到	-10.0418
我们姑娘	-10.0434
篇	-10.044
后事	-10.0442
斟了	-10.0458
必有	-10.0468
至此	-10.0469
一两	-10.0471
该死	-10.0472
兼	-10.0483
从来	-10.0484
也还	-10.049
跑来	-10.0493
幼	-10.052
丰	-10.0525
宴	-10.0529
罕	-10.0532
莲	-10.0533
耶	-10.0534
威	-10.0534
将那	-10.0534
午	-10.0535
两家	-10.0535
哭起来	-10.0536
看她	-10.0536
慈	-10.0536
过来了	-10.0537
滴	-10.0537
抚	-10.0537
逢	-10.0537
束	-10.0538
泉	-10.0538
女尼	-10.0539
延	-10.0539
谋	-10.054
飘	-10.054
浮	-10.054
战	-10.054
富	-10.054
铁槛寺	-10.0542
吵嚷	-10.0542
筋	-10.0542
舞	-10.0542
押	-10.0542
五十	-10.0543
牵	-10.0543
禁不住	-10.0544
胭脂	-10.0545
雀儿	-10.0549
之类	-10.0549
匣子	-10.0549
即忙	-10.0551
小燕	-10.0551
自幼	-10.0551
娶亲	-10.0554
几两银子	-10.0558
犹未	-10.0559
打扫	-10.056
说不出来	-10.0562
有时	-10.0565
薛家	-10.0569
这句话	-10.057
上前	-10.0571
疑心	-10.0576
舅母	-10.0578
便不	-10.0579
风声	-10.0581
▁平儿	-10.0583
也是有的	-10.0584
路上	-10.0612
人口	-10.0615
我们这	-10.062
这孩子	-10.0621
合家	-10.0622
二姐姐	-10.0623
坐坐	-10.0624
这几天	-10.0626
怎么又	-10.0627
不够	-10.0634
贾母又	-10.0647
山石	-10.0657
也是个	-10.0659
这屋里	-10.067
管家	-10.0683
大喜	-10.0689
我竟	-10.0697
一声儿	-10.0699
皆有	-10.0702
在园里	-10.0702
过于	-10.0703
这有什么	-10.0712
尤氏等	-10.0712
兴头	-10.0715
终是	-10.0722
吃药	-10.0727
不下	-10.0736
她说	-10.0754
叫我们	-10.076
回老太太	-10.0768
我们这里	-10.0776
之情	-10.0779
做的	-10.0782
自是	-10.0784
在炕上	-10.0789
我呢	-10.079
都笑了	-10.0812
的生日	-10.0826
她也	-10.0835
就知道了	-10.0839
妇	-10.0844
串	-10.0849
儿呢	-10.0851
出气	-10.0856
贾珍等	-10.0864
把个	-10.0864
进门	-10.0875
进来说	-10.0884
走开	-10.0887
三五	-10.0889
你再	-10.0894
来着	-10.0907
上夜	-10.0922
簪	-10.0925
且又	-10.0925
份	-10.0933
叩	-10.0945
虑	-10.0946
部	-10.0946
冻	-10.0948
盗	-10.0948
质	-10.095
誓	-10.095
坟	-10.095
侧	-10.095
鹤	-10.0952
芙蓉	-10.0952
欺	-10.0952
谕	-10.0952
丹	-10.0953
仇	-10.0953
家下	-10.0953
霞	-10.0953
狂	-10.0953
小蹄子	-10.0954
裹	-10.0954
教训	-10.0955
魄	-10.0955
罩	-10.0955
埋	-10.0956
尖	-10.0956
弹	-10.0956
浅	-10.0956
熏	-10.0956
尾	-10.0956
鼎	-10.0956
慢	-10.0957
恭	-10.0957
臣	-10.0957
遥	-10.0958
媚	-10.0958
臭	-10.0958
困	-10.0958
拨	-10.0958
耽	-10.0958
肩	-10.0959
聘	-10.0959
塞	-10.096
际	-10.096
壮	-10.096
赚	-10.096
益发	-10.0962
混账	-10.0963
乱嚷	-10.0964
胡乱	-10.0965
东边	-10.0965
也不过	-10.0966
是了	-10.0975
凤姐姐	-10.0983
再去	-10.0983
大哭起来	-10.0989
岂有	-10.0989
歇着	-10.1005
男子	-10.1007
分明	-10.1007
子弟	-10.1013
连我也	-10.1014
故此	-10.1017
镜子	-10.1019
姐姐们	-10.1032
发了	-10.1035
帘子	-10.104
几样	-10.1048
好个	-10.1052
一个月	-10.1056
眼里	-10.1061
等人	-10.1063
按着	-10.1068
有这个	-10.1078
层	-10.1078
是他	-10.1089
这是什么	-10.109
之家	-10.1091
弄得	-10.1097
回过	-10.1098
家常	-10.1107
小丫头们	-10.111
第三	-10.1115
歇歇	-10.112
掉	-10.1126
院门	-10.1127
的地方	-10.1131
没有什么	-10.1137
却又	-10.1141
听他	-10.1143
更有	-10.1165
闹得	-10.1168
平儿忙	-10.1174
▁谁知	-10.118
心想	-10.1181
宝玉因	-10.1181
才来	-10.1187
要问	-10.1189
但不知	-10.1192
直到	-10.1193
你放心	-10.1199
比先	-10.1208
性儿	-10.121
逃	-10.1215
恰	-10.1241
身体	-10.1243
两只	-10.1244
娶了	-10.1248
极好	-10.1257
再三	-10.1258
一色	-10.1264
乏	-10.1271
问好	-10.1282
拣了	-10.1287
十来	-10.129
也无	-10.1293
把你	-10.1301
这样说	-10.1302
方子	-10.1311
她母亲	-10.1314
前来	-10.1321
告了	-10.1334
哭得	-10.1335
留心	-10.1337
且说	-10.134
慌	-10.1345
一语未	-10.1357
你是个	-10.1365
瞅	-10.1366
面前	-10.1372
又看	-10.1372
些东西	-10.1373
见得	-10.1375
症	-10.1375
欢	-10.1378
大家都	-10.1379
狠	-10.1379
醋	-10.138
遇见了	-10.1383
拆	-10.1384
欠	-10.1385
驾	-10.1388
拌嘴	-10.1389
拭	-10.1389
郎	-10.1389
床上	-10.1389
圈	-10.139
揉	-10.139
钗	-10.139
标致	-10.139
磨	-10.139
魔	-10.139
欺负	-10.139
洒	-10.1391
洁	-10.1391
姐妹	-10.1391
篱	-10.1391
载	-10.1391
体统	-10.1392
喘	-10.1392
稿	-10.1392
较	-10.1392
含泪	-10.1392
境	-10.1392
形景	-10.1392
惧	-10.1392
悉	-10.1392
闷闷的	-10.1393
梨香院	-10.1393
宾	-10.1394
丑	-10.1394
姊	-10.1394
彩霞	-10.1395
镇	-10.1395
柳湘莲	-10.1395
几乎	-10.1396
王太医	-10.1398
翠墨	-10.1398
舍不得	-10.1401
解闷	-10.1401
马道婆	-10.1401
齐全	-10.1403
论理	-10.1404
琏儿	-10.1405
现今	-10.1406
珍珠	-10.1408
早饭	-10.141
东府里	-10.141
看视	-10.1414
省亲	-10.1418
死活	-10.1421
▁一语未	-10.1425
买的	-10.1426
日间	-10.1427
心肠	-10.1433
丢下	-10.1435
皇上	-10.1436
使了	-10.144
烧了	-10.1455
是极	-10.1458
安静	-10.1459
不定	-10.146
问着	-10.1466
远远的	-10.1467
三更	-10.1467
贾政等	-10.1476
与我	-10.1476
张家	-10.1486
过的	-10.1488
你到底	-10.1488
都没有	-10.1491
只觉	-10.1492
经过	-10.1493
失了	-10.1498
像个	-10.1499
不拘	-10.1503
不绝	-10.1504
也只	-10.1509
宝玉只得	-10.151
分派	-10.1519
早知	-10.1527
若要	-10.1527
携了	-10.153
叫袭人	-10.1561
预备下	-10.1563
邢夫人等	-10.1564
走过来	-10.1584
亲事	-10.1588
就罢了	-10.1591
的小厮	-10.1593
了下来	-10.1596
其实	-10.1597
怎么好	-10.1605
亏你	-10.1613
此处	-10.1618
的诗	-10.164
厨房	-10.1641
贾赦等	-10.1643
难为	-10.1668
的安	-10.1669
见面	-10.1671
有这样	-10.1674
家务	-10.1674
都笑起来	-10.1675
不顾	-10.1685
现有	-10.17
无所	-10.1718
疯	-10.1719
无不	-10.1723
▁袭人	-10.1731
房屋	-10.1733
派人	-10.1734
老实	-10.1736
再要	-10.1737
俗语说	-10.174
姐儿	-10.1745
造化	-10.1745
想起来	-10.1764
惊动	-10.1771
我瞧瞧	-10.1772
躺	-10.1783
他是	-10.1784
不放	-10.1789
匹	-10.1794
见贾政	-10.1795
走走	-10.1795
侄	-10.1797
某	-10.18
童	-10.18
话来	-10.1807
佳	-10.1808
叔	-10.1811
一起	-10.1819
仗	-10.182
窝	-10.1823
嫂	-10.1823
阴阳	-10.1827
眷	-10.1827
作的	-10.1832
唬了一跳	-10.1832
走进来	-10.1834
冒	-10.1835
章	-10.1836
骑	-10.1838
猛	-10.1839
绫	-10.1839
卦	-10.1839
屈	-10.184
袭人忙	-10.1841
戳	-10.1841
龄官	-10.1841
衔	-10.1842
贱	-10.1842
畏	-10.1842
甜	-10.1843
胸	-10.1843
碧	-10.1843
狐	-10.1843
碎	-10.1844
阅	-10.1844
掐	-10.1844
忿	-10.1844
界	-10.1844
付	-10.1844
匙	-10.1845
诉	-10.1845
娘儿两个	-10.1845
宿	-10.1845
掀	-10.1845
芦	-10.1846
瞧了一瞧	-10.1846
附	-10.1846
团	-10.1847
僻	-10.1847
妒	-10.1847
踢	-10.1847
缝	-10.1847
荒	-10.1847
卸	-10.1848
逐	-10.1849
邢岫烟	-10.1849
不理论	-10.1849
..“	-10.185
蕊官	-10.185
细看	-10.1851
孝顺	-10.1851
张道士	-10.1852
回来说	-10.1856
何尝	-10.1857
老先生	-10.1857
身边	-10.1858
异常	-10.1858
念佛	-10.1858
详	-10.1859
在床上	-10.1863
回避	-10.1868
见识	-10.1869
清净	-10.1872
谁敢	-10.1873
自此	-10.1874
回房去	-10.1878
榻上	-10.1885
不少	-10.1885
及至	-10.189
请大夫	-10.1891
你老	-10.1891
身后	-10.1893
性命	-10.1894
费心	-10.1896
生恐	-10.1897
剩下	-10.1898
多了	-10.1904
前面	-10.1905
亦是	-10.1915
有两个	-10.1918
这都是	-10.1927
三分	-10.1928
主上	-10.1929
答言	-10.1937
止住	-10.1945
大哥哥	-10.195
无故	-10.1952
的很	-10.1956
管事的	-10.1959
回话	-10.196
使用	-10.196
咱们的	-10.196
乏了	-10.1963
也不言语	-10.1965
在旁边	-10.1972
亦不	-10.1974
慌了	-10.1974
便有	-10.1982
见了宝玉	-10.199
还不快	-10.1991
袭人姐姐	-10.2003
内中	-10.2004
并未	-10.2004
侯	-10.2005
出入	-10.2016
往下	-10.2018
一双	-10.2018
仪	-10.2019
想想	-10.2023
平姑娘	-10.2024
之言	-10.2024
出家	-10.2031
不比	-10.2034
且不	-10.2034
之理	-10.2039
那玉	-10.2056
为何	-10.2058
皆因	-10.2064
口中	-10.2069
我和你	-10.2073
那起	-10.2073
被人	-10.2075
好人	-10.2078
四个人	-10.2082
如今我	-10.2083
个什么	-10.2084
爱吃	-10.2091
又嘱咐	-10.2094
露出	-10.2106
一套	-10.2109
不妥	-10.2119
闲了	-10.2119
渐渐	-10.212
一生	-10.212
便知是	-10.2122
岂不好	-10.2122
不似	-10.2131
让她	-10.2137
与你	-10.2172
人回	-10.2174
没法儿	-10.2189
打着	-10.2198
往外	-10.2199
这边来	-10.2206
为我	-10.2211
扶了	-10.2216
受用	-10.2241
有钱	-10.2243
不答	-10.2243
回太太	-10.2249
不知怎么	-10.2255
且别	-10.2256
半夜	-10.2257
因想	-10.2265
方欲	-10.2279
雪雁道	-10.2288
才罢	-10.2289
径	-10.2289
一所	-10.229
项	-10.2291
痰	-10.2301
脑	-10.2303
想必	-10.2303
院里	-10.2306
跌	-10.2311
媒	-10.2312
菱	-10.2312
钻	-10.2314
孽	-10.2314
覆	-10.2314
只见宝钗	-10.2315
遭塌	-10.2318
兵	-10.2319
甘	-10.2319
扎	-10.232
子上	-10.232
栊翠庵	-10.232
靴	-10.232
簇	-10.2321
瘦	-10.2321
库	-10.2321
颤	-10.2322
梁	-10.2322
价	-10.2322
充	-10.2322
囊	-10.2322
销	-10.2322
乌	-10.2322
巡	-10.2323
凝	-10.2323
成日家	-10.2323
秉	-10.2323
浓	-10.2324
扁	-10.2324
陈	-10.2324
鹅	-10.2324
否	-10.2324
素习	-10.2325
衰	-10.2325
辜负了	-10.2325
庆	-10.2325
夫妇	-10.2327
闭	-10.2327
委曲	-10.2327
玩耍	-10.2327
鸭	-10.2327
睁眼	-10.2329
往日	-10.2329
买卖	-10.2332
哭泣	-10.2333
这几个	-10.2339
其余	-10.2344
看守	-10.2348
一面说着	-10.2354
私自	-10.2356
好象	-10.2356
归坐	-10.2356
送出	-10.2359
极是	-10.2359
对面	-10.2364
找着	-10.2365
李纨等	-10.2369
想毕	-10.237
面上	-10.2371
说的是	-10.2375
风月	-10.2376
已毕	-10.2378
去取	-10.2378
给他们	-10.2379
我已经	-10.2382
一遍	-10.2383
到家	-10.2384
的心事	-10.2385
众媳妇	-10.2386
打发人去	-10.2387
那位	-10.2397
忙陪笑	-10.2397
你们两个	-10.2406
她二人	-10.241
还罢了	-10.2415
两眼	-10.2416
还不知	-10.243
忙乱	-10.2432
宝玉等	-10.2434
先时	-10.2436
我已	-10.2446
买了	-10.2449
记着	-10.2452
可别	-10.2453
不相干	-10.2454
天上	-10.2459
个个	-10.2464
当作	-10.2467
的好处	-10.2469
写着	-10.2473
这玉	-10.2474
正好	-10.2475
家伙	-10.2481
府上	-10.2485
说不得	-10.2486
学问	-10.2494
如意	-10.2505
我们家的	-10.2515
城外	-10.2516
老了	-10.2516
这件	-10.2523
正在那里	-10.2524
▁宝玉听了	-10.2531
端了	-10.254
捧了	-10.256
不言	-10.2566
园门	-10.2567
原要	-10.2568
贾母听说	-10.2574
他还	-10.2574
我没	-10.2581
鸳鸯等	-10.2582
有意	-10.2596
多事	-10.2612
不清	-10.2626
这一句	-10.2637
快拿	-10.2645
竟不	-10.2645
晚了	-10.2653
自觉	-10.2667
棋	-10.267
又不知	-10.2673
不给	-10.2675
一动	-10.2676
很是	-10.269
少了	-10.2693
不容	-10.2698
》。	-10.2701
见宝钗	-10.2706
一面走	-10.271
给你们	-10.2716
细问	-10.2718
有所	-10.2729
椅	-10.2729
我的儿	-10.273
只见一个	-10.2747
禅	-10.2748
这园子	-10.2751
两三	-10.2751
这般光景	-10.2755
身旁	-10.2759
咱们家的	-10.2761
即命	-10.2765
豆	-10.2781
院内	-10.2785
尚有	-10.2789
不迟	-10.2792
议	-10.2793
嗔	-10.2796
快请	-10.2797
益	-10.2799
旺	-10.28
我今儿	-10.2803
学里	-10.2805
坠	-10.2806
那里有	-10.2807
这两个	-10.2807
外间	-10.2807
打扮	-10.2808
拳	-10.281
程	-10.2812
偿	-10.2813
尤	-10.2813
寺	-10.2814
晴	-10.2815
拴	-10.2815
倍	-10.2815
悦	-10.2816
巴	-10.2816
鼠	-10.2817
唇	-10.2818
决	-10.2818
觅	-10.2819
宣	-10.2819
录	-10.2819
教导	-10.2819
认了	-10.282
伯	-10.282
郁	-10.282
赢	-10.2821
温柔	-10.2821
杨	-10.2821
序	-10.2821
敷	-10.2821
玩意儿	-10.2822
蔷	-10.2822
勒	-10.2822
默默	-10.2822
蜡	-10.2823
撤	-10.2823
绮	-10.2823
聊	-10.2823
消息	-10.2823
役	-10.2823
痒	-10.2824
挺	-10.2824
鬓	-10.2824
古怪	-10.2825
祖父	-10.2825
绸	-10.2826
扰	-10.2826
沿	-10.2826
水月庵	-10.2827
元春	-10.2827
佩凤	-10.2828
作践	-10.2831
贾敬	-10.2833
害怕	-10.2835
贾雨村	-10.2839
怀里	-10.284
平常	-10.2842
情愿	-10.2843
关了	-10.2843
只当是	-10.2849
事务	-10.2853
小太监	-10.2855
张三	-10.2861
哪个	-10.2865
啼哭	-10.2865
裙子	-10.2865
正经事	-10.2874
两次	-10.2884
道婆	-10.2893
在后	-10.2894
那姑子	-10.2895
抱着	-10.2901
帖子	-10.2902
也不肯	-10.2908
俱已	-10.2911
几句话	-10.2912
还可	-10.2913
的丫鬟	-10.2916
难为你	-10.2919
这句	-10.2922
收拾了	-10.2924
不知何	-10.2926
回来再	-10.2932
改了	-10.2932
两样	-10.2934
怕她	-10.2941
性子	-10.2943
没见	-10.2948
何事	-10.2948
也别	-10.2953
作个	-10.2954
疯了	-10.2955
▁李纨	-10.2975
依旧	-10.2984
大妹妹	-10.2997
二门上	-10.3016
随着	-10.302
给宝玉	-10.3024
只听得	-10.3031
要是	-10.3034
先是	-10.3038
两府	-10.304
撵了	-10.3046
那里还	-10.3056
知她	-10.3067
两人	-10.3072
酒来	-10.3073
不敢说	-10.3075
家里的	-10.3089
一包	-10.3089
后门	-10.3095
方回	-10.3102
还等	-10.3109
不惯	-10.3112
叫你们	-10.3152
小人	-10.3162
不与	-10.3164
破了	-10.3167
忙又	-10.3168
竟有	-10.3171
找去	-10.3183
婆	-10.3185
我那里	-10.3199
别管	-10.32
小丫头子们	-10.3202
背着	-10.321
好笑	-10.3213
当家	-10.3223
▁于是	-10.3223
又把	-10.3223
国公	-10.3223
心疼	-10.3225
二年	-10.3227
我怎么	-10.3235
这丫头	-10.3242
现成的	-10.3244
来家	-10.325
拍	-10.3255
还有一	-10.3261
有多少	-10.3271
不明白	-10.3272
盏	-10.3273
手儿	-10.3294
耗	-10.33
习	-10.3303
带来	-10.3306
和宝钗	-10.3308
庵	-10.3317
奶	-10.3325
焦	-10.3326
芸	-10.3328
碟	-10.333
干了	-10.3338
验	-10.3339
妄	-10.3341
营	-10.3342
县	-10.3343
额	-10.3343
示	-10.3343
委	-10.3344
馆	-10.3344
鸾	-10.3345
滑	-10.3345
灭	-10.3345
苍	-10.3346
漆	-10.3346
蝉	-10.3346
慕	-10.3346
颜	-10.3346
佩	-10.3347
哉	-10.3347
耐	-10.3347
固然	-10.3348
讹	-10.3348
一干	-10.3348
辉	-10.3348
梢	-10.3348
超	-10.3348
卯	-10.3348
山坡	-10.3349
檐	-10.3349
违	-10.3349
啐了一口	-10.3349
拖	-10.3349
苔	-10.3349
浑身	-10.3349
湿	-10.335
王子腾	-10.335
齐整	-10.335
住下	-10.335
挥	-10.335
舟	-10.335
诊	-10.335
笛	-10.3351
判	-10.3351
酥	-10.3351
暇	-10.3351
怔怔的	-10.3351
李绮	-10.3351
继	-10.3351
萧	-10.3351
猪	-10.3352
奉承	-10.3352
润	-10.3352
陈设	-10.3352
契	-10.3353
麻	-10.3354
何妨	-10.3354
将军	-10.3355
功名	-10.3356
这是怎么说	-10.3357
送殡	-10.3358
也不答言	-10.3358
谢恩	-10.3359
房舍	-10.336
笑了一笑	-10.3361
颦儿	-10.3361
田地	-10.3363
凤姐等	-10.3363
翻身	-10.3368
干娘	-10.3368
目今	-10.3369
胡涂东西	-10.3372
宋	-10.3375
非常	-10.3377
这还了得	-10.338
并非	-10.3385
解劝	-10.3386
那知	-10.3386
宁可	-10.3387
入画	-10.3387
亲近	-10.3387
赦	-10.3387
办理	-10.3388
五六	-10.3391
见过了	-10.3395
四更	-10.3397
写字	-10.3398
歪着	-10.3399
三妹妹	-10.3407
拉她	-10.341
多谢	-10.341
请教	-10.3414
一块儿	-10.3414
回贾母	-10.3416
母子	-10.3416
她娘	-10.3416
比如	-10.3416
又兼	-10.3417
金玉	-10.3419
拍手	-10.3421
趁着	-10.3422
倒还	-10.3423
知他	-10.3424
帐子	-10.3425
二姨	-10.3426
未曾	-10.3427
凡有	-10.3436
又添了	-10.3437
没事	-10.3438
递给	-10.3438
顺着	-10.3441
才知道	-10.3445
乐得	-10.3465
不论	-10.347
送来的	-10.347
必定是	-10.3473
少时	-10.3477
走动	-10.3484
的人来	-10.3486
大凡	-10.3489
上夜的	-10.3493
托着	-10.3493
走上来	-10.3495
真个	-10.3496
为是	-10.3519
闲着	-10.3528
可有	-10.3534
衙门里	-10.3535
!“	-10.3536
云儿	-10.3538
样儿	-10.3538
贾琏听了	-10.3544
就算	-10.3551
喝命	-10.3552
要死	-10.3552
似有	-10.3557
因命	-10.3573
把她	-10.3575
不语	-10.3578
散去	-10.3587
几处	-10.359
比别人	-10.3595
有什么话	-10.3597
那小厮	-10.3599
大家又	-10.3613
▁此时	-10.3618
还不知道	-10.3623
俱是	-10.3623
别处去	-10.3627
宝钗听了	-10.3628
世上	-10.3629
点心	-10.3633
请老爷	-10.3633
全了	-10.3645
只等	-10.3663
伤了	-10.3665
得起	-10.3666
人品	-10.3683
本家	-10.3687
!’	-10.3689
不识	-10.3691
仪门	-10.3696
方散	-10.3716
脱了	-10.3731
令其	-10.3736
句话	-10.375
你不用	-10.3753
趣儿	-10.3758
什么呢	-10.3764
▁贾珍	-10.3764
前年	-10.3779
哭的	-10.3782
怕他	-10.3785
四儿	-10.3792
只见袭人	-10.3795
姐	-10.3796
上等	-10.3801
便拉	-10.3801
见黛玉	-10.3802
依了	-10.3804
不等	-10.3812
一副	-10.3838
玩的	-10.3841
不理他	-10.3851
二两	-10.3854
啼	-10.3859
腹	-10.3867
剂	-10.3868
相好	-10.3874
鼻	-10.3882
乎	-10.3885
岂不是	-10.3885
产	-10.3888
谎	-10.3888
也不大	-10.3889
驳	-10.3891
只知	-10.3892
不通	-10.3892
葬	-10.3892
斋	-10.3895
殡	-10.3896
鞭	-10.3896
梳	-10.3897
邢大舅	-10.3898
羽	-10.3899
市	-10.3899
饰	-10.39
揽	-10.39
雕	-10.39
拋	-10.3901
斗篷	-10.3901
惠	-10.3901
兆	-10.3902
岸	-10.3902
棍	-10.3902
感激	-10.3902
肏	-10.3902
赠	-10.3902
嗳	-10.3903
踪	-10.3903
警	-10.3903
祝	-10.3903
詹光	-10.3903
秦	-10.3903
嗽	-10.3904
荐	-10.3904
伙计	-10.3904
谦	-10.3904
笔砚	-10.3904
阔	-10.3905
泡	-10.3905
风筝	-10.3905
污	-10.3906
逝	-10.3906
奶娘	-10.3906
漏	-10.3906
炒	-10.3906
搅	-10.3907
似乎	-10.3907
绳	-10.3907
隙	-10.3907
票	-10.3908
伏侍	-10.3908
劝慰	-10.3908
骨肉	-10.3908
婆娘	-10.3909
砚	-10.391
举止	-10.391
齐备	-10.391
往哪里去	-10.3911
古今	-10.3913
悲伤	-10.3913
混帐	-10.3914
告假	-10.3915
游玩	-10.3915
椅子	-10.3917
落泪	-10.392
特来	-10.3921
怪不得	-10.3923
居住	-10.3924
至晚	-10.3927
世交	-10.3927
你这会子	-10.3927
小丫鬟	-10.3928
奴才们	-10.393
送你	-10.393
洗手	-10.3933
另外	-10.3933
拐子	-10.3938
两句话	-10.3939
老太太那边	-10.394
晓得	-10.3949
躺下	-10.395
书房里	-10.395
几位	-10.3952
老子娘	-10.3952
一眼	-10.3954
三间	-10.3954
儿孙	-10.3957
甚至	-10.3958
跪着	-10.3962
灯笼	-10.3964
闹起来	-10.3967
你们就	-10.3967
何三	-10.3967
莫若	-10.3972
完事	-10.3973
当年	-10.3973
二十个	-10.3974
没有人	-10.3974
不甚	-10.3976
只见黛玉	-10.398
去瞧	-10.398
的原故	-10.3983
虽说是	-10.3984
好看	-10.3989
虽如此说	-10.3989
好日子	-10.3989
何如	-10.3993
暗暗的	-10.4
问了好	-10.4006
只叫	-10.4007
一旁	-10.4008
设着	-10.401
胆子	-10.4011
子兴	-10.4016
不远	-10.4017
夏家	-10.4022
是真	-10.403
上回	-10.4031
如今要	-10.4048
一字	-10.405
画儿	-10.4053
你娘	-10.4054
是知道的	-10.4057
俗语说的	-10.4075
多情	-10.4076
接过	-10.4078
孩子们	-10.4081
出神	-10.4083
为难	-10.4087
也只好	-10.4095
不免又	-10.4097
真心	-10.41
劝他	-10.4102
咱们两个	-10.4109
不服	-10.4112
进园来	-10.4114
你们只管	-10.4131
升了	-10.4132
前后	-10.4141
众人听说	-10.4144
看书	-10.4151
千金	-10.4155
这个话	-10.4159
谁叫你	-10.4166
你心里	-10.4175
有我呢	-10.4181
袭人听了	-10.4188
回去罢	-10.4188
在外间	-10.4189
来历	-10.4192
甚是	-10.4193
样子	-10.4198
生怕	-10.4205
槛	-10.4228
▁林黛玉	-10.4229
等她	-10.4233
所以才	-10.4244
是有的	-10.4245
你家	-10.4251
▁至次日	-10.4278
总是	-10.4318
小孩子	-10.432
梳洗了	-10.4335
副	-10.4337
对联	-10.4338
又骂	-10.4339
的药	-10.4344
随后	-10.4356
旧年	-10.4359
只用	-10.436
相干	-10.4367
烫	-10.4367
只见凤姐	-10.4368
摘	-10.4371
说了出来	-10.4388
懂得	-10.4394
岂有不	-10.4398
宝玉见她	-10.4401
如今且	-10.4406
一个丫头	-10.4406
已到	-10.441
那媳妇	-10.4413
来请安	-10.442
要什么	-10.4423
是怎么样	-10.4424
太医	-10.4436
待我	-10.4437
廊	-10.4437
▁王夫人	-10.4442
官司	-10.4442
那里就	-10.4454
拿了来	-10.4459
好孩子	-10.4464
只见王夫人	-10.447
蓉	-10.4471
状	-10.4474
触	-10.4474
办去	-10.4475
奈	-10.4475
楚	-10.4476
旦	-10.4478
燕窝	-10.4478
燕	-10.4478
捡	-10.4482
蝶	-10.4482
智能	-10.4482
彩屏	-10.4483
卿	-10.4483
蠢物	-10.4484
笨	-10.4485
煎	-10.4485
测	-10.4485
虫	-10.4485
奸	-10.4486
克	-10.4486
捱	-10.4486
革	-10.4488
蘅芜苑	-10.4488
藕	-10.4488
絮	-10.4489
瞪	-10.4489
获	-10.449
勤	-10.449
释	-10.449
保不住	-10.449
源	-10.449
凄	-10.4491
鹿	-10.4491
活计	-10.4491
迁	-10.4491
枯	-10.4491
瓦	-10.4492
李宫裁	-10.4492
斜	-10.4492
有的说	-10.4492
蠢	-10.4492
斯	-10.4492
腾	-10.4492
轮	-10.4492
零	-10.4492
拭泪	-10.4492
掣	-10.4492
诞	-10.4492
弯	-10.4492
弦	-10.4493
灾	-10.4493
一宿无话	-10.4493
魂魄	-10.4493
拔	-10.4494
功课	-10.4494
回到自己房中	-10.4494
绞	-10.4494
钉	-10.4494
爵	-10.4494
漫	-10.4495
的话说了一遍	-10.4495
恋	-10.4495
抖	-10.4495
铜	-10.4495
据我看	-10.4495
》、《	-10.4496
辱	-10.4496
精致	-10.4496
炭	-10.4496
吆喝	-10.4496
寡	-10.4497
通共	-10.4497
节度	-10.4499
睡不着	-10.4502
大娘	-10.4504
世兄	-10.4505
没了主意	-10.4506
唱戏	-10.4508
外书房	-10.4509
字迹	-10.451
昨晚	-10.4513
迎接	-10.4513
忽又	-10.4515
皆系	-10.4521
不多时	-10.4521
自古	-10.4528
金刚	-10.4531
只不过	-10.4533
灵前	-10.4534
更比	-10.4534
上夜的人	-10.4545
早又	-10.4553
梦中	-10.4554
待书	-10.4556
又气又	-10.4558
好话	-10.4559
点头叹	-10.4559
吃毕	-10.4561
不得闲	-10.4561
银两	-10.4561
这时候	-10.4565
逼着	-10.4565
之母	-10.4566
靠着	-10.4568
也没见	-10.457
服药	-10.457
▁这日	-10.4572
政	-10.4572
一干人	-10.4573
石上	-10.4574
珠儿	-10.4577
你父亲	-10.458
不得的	-10.4585
时辰	-10.4588
挂着	-10.4591
常常	-10.4593
案上	-10.4593
偏偏	-10.46
我的话	-10.4602
八个	-10.4611
走罢	-10.4613
到园里	-10.4616
跑出	-10.4623
未见	-10.4631
也不怕	-10.4633
但凡	-10.4635
说了几句	-10.464
▁原来这	-10.465
两手	-10.465
贾宝玉	-10.4653
疼我	-10.4655
王夫人便	-10.4658
笑话儿	-10.4658
乱叫	-10.4661
家事	-10.4663
诗词	-10.4666
三百	-10.4667
千万	-10.4668
唬的	-10.4671
进园	-10.468
不理我	-10.4682
还记得	-10.4685
脏了	-10.4687
到这里来	-10.4688
还怕	-10.4688
遣人来	-10.469
吃得	-10.4691
请太太	-10.4694
要到	-10.4696
微微的	-10.4697
心里想	-10.4703
正是呢	-10.4706
心事	-10.471
下处	-10.4717
无情	-10.4718
二姑娘	-10.4719
不胜	-10.4734
的孩子	-10.4737
怎么着	-10.4739
凭他	-10.4748
取来	-10.4752
世人	-10.4764
的是什么	-10.4774
竟不能	-10.4789
我又不	-10.4793
年下	-10.4795
一面想	-10.4796
我哥哥	-10.4811
既有	-10.4824
大哭	-10.4826
连个	-10.4827
地方儿	-10.4828
一定是	-10.4829
又是个	-10.4839
丁	-10.4851
出至	-10.4857
琏	-10.4857
当时	-10.4865
拿了去	-10.4866
我明儿	-10.487
薛姨妈等	-10.487
闹到	-10.4872
也不知是	-10.4888
众婆子	-10.4893
没看见	-10.492
也有些	-10.4921
厮	-10.493
一气	-10.4955
忙站起来	-10.4958
造次	-10.4964
再请	-10.4977
出园	-10.4978
已将	-10.498
发怔	-10.4986
也不便	-10.499
枉	-10.4994
和平儿	-10.5003
其意	-10.5005
的衣服	-10.5007
抬了	-10.5009
和我说	-10.5009
得罪	-10.5016
▁探春	-10.5016
信儿	-10.5018
”“	-10.5029
赶上	-10.5032
出城	-10.5033
无妨	-10.5036
取去	-10.5042
入了	-10.5043
贾母因	-10.5045
一分	-10.5047
道谢	-10.5054
阵	-10.5058
晴雯等	-10.5065
绢	-10.5081
嘻嘻	-10.5087
谓	-10.509
雀	-10.5091
的银子	-10.5091
倒不好	-10.5095
扮	-10.5107
当铺里	-10.5108
猫	-10.5109
踏	-10.511
撑不住	-10.5111
各房	-10.5112
逗	-10.5112
商	-10.5113
浊	-10.5113
蓬	-10.5114
上上下下	-10.5114
翁	-10.5114
脂	-10.5114
爽	-10.5115
给人	-10.5115
垫	-10.5115
栽	-10.5115
丈夫	-10.5116
申	-10.5116
拥	-10.5116
睁	-10.5116
缺	-10.5116
幕	-10.5116
辆	-10.5116
怯	-10.5116
轩	-10.5116
眠	-10.5116
烈	-10.5117
回至房中	-10.5117
徒	-10.5117
吴	-10.5117
撑	-10.5117
睁开眼	-10.5118
暴	-10.5118
惨	-10.5118
规	-10.5118
英莲	-10.5118
阻	-10.5118
筵	-10.5118
蒸	-10.5118
希	-10.5118
王熙凤	-10.5119
击	-10.5119
王一贴	-10.5119
艰难	-10.5119
奠	-10.5119
匾额	-10.5119
衙役	-10.5119
自不必说	-10.512
赴	-10.512
吞	-10.512
宝贝	-10.512
金桂的母亲	-10.512
御	-10.512
匠	-10.512
缩	-10.512
箭	-10.512
亲家太太	-10.512
租	-10.5121
竿	-10.5121
辩	-10.5121
老太太那里	-10.5121
拧	-10.5121
包袱	-10.5121
兔	-10.5122
解释	-10.5122
丸药	-10.5122
多着呢	-10.5122
店	-10.5122
骑马	-10.5123
原委	-10.5123
趁势	-10.5123
知己	-10.5124
十倍	-10.5124
冤家	-10.5124
第二件	-10.5126
尊重	-10.5126
西边	-10.5127
算计	-10.5127
林丫头	-10.5128
打听打听	-10.5128
吃些	-10.5129
厨房里	-10.5129
顺路	-10.513
迎上来	-10.513
日期	-10.5133
还了得	-10.5135
安稳	-10.5139
今夜	-10.514
芹儿	-10.5141
奶子	-10.5143
两位	-10.5143
当初	-10.5144
一股	-10.5148
素知	-10.5149
老婆子们	-10.515
焦大	-10.515
躺着	-10.5156
菊花	-10.5157
回答	-10.5158
应该	-10.5159
绢子	-10.5163
放了心	-10.5165
酒席	-10.5165
心腹	-10.5166
更衣	-10.5166
围着	-10.5167
袄儿	-10.5167
晚生	-10.5168
不知好歹	-10.5169
一身	-10.5173
叹息	-10.5174
一点子	-10.5176
旧病	-10.5178
答应着去了	-10.5179
时侯	-10.5184
胡闹	-10.5189
该罚	-10.5189
内有	-10.519
这番	-10.5192
摆酒	-10.5194
舅太爷	-10.5194
会说话	-10.5199
哪里知道	-10.5203
影儿	-10.5207
疼你	-10.5207
花样	-10.5211
头一件	-10.5211
也未必	-10.5216
到那边	-10.5218
一篇	-10.5222
腰门	-10.5223
也不要	-10.5225
听这话	-10.5228
你妹妹	-10.5232
气色	-10.5239
来寻	-10.5239
再不敢	-10.5246
快别	-10.5248
都在这里	-10.5257
一钟	-10.5261
将方才	-10.5262
谁不	-10.5266
上次	-10.5267
忽有	-10.5269
必得	-10.5271
一共	-10.5274
说的话	-10.5278
等到	-10.5282
有病	-10.5284
下雪	-10.5285
玩去	-10.5285
也使得	-10.5286
五更	-10.5288
一座	-10.5294
刚要	-10.53
无心	-10.5305
短了	-10.5308
一言	-10.5313
但只是	-10.5314
总没	-10.532
熟了	-10.5334
作什么呢	-10.5336
叫什么	-10.5343
雇	-10.5345
贾母因问	-10.5356
就够了	-10.5356
▁那时	-10.536
只有一个	-10.5364
再有	-10.5364
眼见	-10.5364
一桌	-10.5372
起我来	-10.5378
不由	-10.5386
探春等	-10.5391
给我们	-10.5392
不差	-10.5393
了不得了	-10.5398
连连	-10.5403
▁雨村	-10.541
们都	-10.5412
开心	-10.5417
过后	-10.5423
三天	-10.5425
已定	-10.5434
之名	-10.5435
一个字	-10.5439
睡罢	-10.546
不喜欢	-10.5461
略略	-10.5461
和太太	-10.5462
了几日	-10.5464
倒把	-10.5464
别的事	-10.5473
笑得	-10.5478
都是些	-10.5482
做得	-10.5498
我也不敢	-10.55
忙赶	-10.5501
单子	-10.5503
之上	-10.5508
已有	-10.5508
看家	-10.5509
明儿我	-10.5514
怕人	-10.5518
小小	-10.5532
段	-10.5533
原来这	-10.5541
都有了	-10.5545
人参	-10.5545
在里间	-10.5557
还是这么	-10.556
伙	-10.5564
心里却	-10.5572
和我们	-10.5576
为这个	-10.5576
向来	-10.5578
吃罢	-10.5591
不真	-10.5598
遣人	-10.5603
太太跟前	-10.5605
着手	-10.5606
十八	-10.5619
书房中	-10.5638
送与	-10.564
见了这般	-10.5641
折了	-10.5646
怡红院中	-10.5652
什么大事	-10.5654
外任	-10.5656
歇了	-10.5656
日日	-10.566
住在	-10.566
辰	-10.5671
宫里	-10.5675
跟着我	-10.5687
滚下泪来	-10.5692
凤姐忙	-10.5694
你林妹妹	-10.5699
谁去	-10.5709
刘姥姥便	-10.571
跑进来	-10.5713
一千	-10.5718
一种	-10.5723
的福	-10.5727
不闻	-10.5728
毡	-10.5743
就像	-10.5743
庶	-10.5753
匣	-10.5758
阁	-10.5763
家内	-10.5764
模样	-10.577
没有的事	-10.5771
苇	-10.5772
忆	-10.5772
屉	-10.5776
酬	-10.5777
纹	-10.5777
智	-10.5777
只剩了	-10.5778
大姐儿	-10.5778
煞	-10.5778
省了	-10.5779
激	-10.5779
一回儿	-10.5779
海疆	-10.5779
吓了一跳	-10.578
荷	-10.578
朗	-10.578
倾	-10.5781
--	-10.5781
御史	-10.5781
棺材	-10.5781
债	-10.5781
荆	-10.5781
率	-10.5781
偈	-10.5782
骗	-10.5782
去就是了	-10.5782
藕香榭	-10.5782
试试	-10.5782
三姐	-10.5782
镶	-10.5783
孽障	-10.5783
割	-10.5783
碧痕	-10.5783
丈	-10.5783
旗	-10.5783
拂	-10.5783
帚	-10.5784
窃	-10.5784
印	-10.5784
筒	-10.5784
仆	-10.5784
掇	-10.5784
劝我	-10.5784
兜	-10.5785
钦	-10.5785
闹出事来	-10.5785
宗祠	-10.5785
方是	-10.5785
媳	-10.5785
坑	-10.5785
流下泪来	-10.5785
院子里	-10.5785
庚	-10.5786
绣橘	-10.5786
敲	-10.5786
体贴	-10.5786
暖阁	-10.5787
说些闲话	-10.5787
糕	-10.5787
的时节	-10.5787
脖子	-10.5788
外孙女儿	-10.5788
终究	-10.5788
一席话	-10.579
炕沿	-10.579
尤老娘	-10.5791
香袋	-10.5792
展眼	-10.5792
拉扯	-10.5797
家产	-10.5797
机会	-10.5798
哭了一场	-10.5798
之态	-10.5799
洗脸	-10.5799
女孩子们	-10.58
平安	-10.5801
找不着	-10.5802
三个字	-10.5802
络子	-10.5802
那里肯	-10.5803
神魂	-10.5805
劳乏	-10.5805
素云	-10.5806
迎面	-10.5807
彩明	-10.5808
▁宝玉看了	-10.5808
蓉儿	-10.581
打架	-10.5812
每年	-10.5812
恨不得	-10.5814
爬起来	-10.5817
料着	-10.582
再四	-10.5821
▁鸳鸯	-10.5825
关门	-10.5826
也多	-10.5828
天恩	-10.5829
方知	-10.583
心酸	-10.5836
与黛玉	-10.5841
赶到	-10.5842
册子	-10.5843
上京	-10.5844
刚至	-10.5847
真切	-10.5847
街上	-10.5848
遇着	-10.585
喝道	-10.5854
一见了	-10.5858
吃了酒	-10.5859
敢是	-10.5859
称赞	-10.5861
过门	-10.5863
过不去	-10.5868
奇事	-10.5869
这才是	-10.5871
的娘	-10.5875
急的	-10.5878
也就罢了	-10.5883
窗下	-10.5886
来领	-10.5887
了几句	-10.589
一跳	-10.5899
算来	-10.5899
地里	-10.5899
一班	-10.5901
这可是	-10.5911
不大好	-10.5913
拿什么	-10.5916
往年	-10.5918
落花	-10.5918
青儿	-10.592
盘子	-10.5928
拿些	-10.5928
茶盘	-10.5932
带去	-10.5936
一盆	-10.5936
这两件	-10.5937
一死	-10.5941
添上	-10.5943
你们家	-10.5951
领命	-10.5955
已有了	-10.5959
不配	-10.5961
说话时	-10.5962
忙得	-10.5963
问候	-10.5965
是好的	-10.5965
因又问	-10.597
活着	-10.5974
舌头	-10.5976
慌得	-10.5977
薛姨妈听了	-10.5989
你在这里	-10.5992
就如	-10.5995
忙劝	-10.5997
偷着	-10.5998
料定	-10.5998
上车	-10.6004
配了	-10.6006
照着	-10.6006
常说	-10.6013
了一番	-10.6015
等不得	-10.6015
席上	-10.6016
掏出	-10.6028
猜着了	-10.6037
下流	-10.6044
谁是	-10.6053
从没	-10.6054
无言	-10.6055
与王夫人	-10.6056
轻轻	-10.6061
弄出	-10.6064
瞧见	-10.6068
那屋里	-10.6075
山子	-10.6075
说得是	-10.6086
她妈	-10.6095
反说	-10.6097
都中	-10.6099
尽着	-10.6108
便觉	-10.611
推他	-10.6112
麝月等	-10.6114
了一半	-10.6115
于是大家	-10.612
一连	-10.6129
管事	-10.6135
我替	-10.614
明日再	-10.6149
打得	-10.6174
生在	-10.6176
也不管	-10.6192
哄我	-10.6197
便有些	-10.6205
我妈	-10.6235
三千	-10.624
难为他	-10.6245
家下人	-10.6254
玩话	-10.6255
还只管	-10.6256
你今儿	-10.6257
宝玉听了这话	-10.6282
就说我	-10.6282
不疼	-10.6283
以来	-10.6283
有限	-10.6285
带来的	-10.6305
一支	-10.6313
闹出	-10.6328
掩了	-10.6355
不合	-10.6381
不但不	-10.6383
递了	-10.639
像你	-10.6392
家去了	-10.6424
叫平儿	-10.6425
般	-10.6427
顿饭	-10.6432
分儿	-10.6437
还未	-10.6441
究	-10.645
请二爷	-10.6453
只见贾母	-10.6458
络	-10.6477
刘	-10.6484
适	-10.6484
粮	-10.6486
军	-10.6486
湘	-10.6487
蕙	-10.649
嗤	-10.649
俯	-10.6491
幻	-10.6492
麝	-10.6492
寂	-10.6493
齿	-10.6493
沏	-10.6493
东府	-10.6493
梯己	-10.6493
砌	-10.6493
脑袋	-10.6493
晶	-10.6494
爻	-10.6494
促狭	-10.6494
稻香村	-10.6494
李婶娘	-10.6495
慧	-10.6495
堵	-10.6495
肥	-10.6495
寝	-10.6495
健	-10.6495
预	-10.6495
舆	-10.6496
喷	-10.6496
磕了头	-10.6496
惑	-10.6496
蠲	-10.6496
尝尝	-10.6496
怎奈	-10.6496
榜	-10.6497
不承望	-10.6497
肿	-10.6497
汝	-10.6497
袋	-10.6497
竖	-10.6498
祖母	-10.6498
途	-10.6498
巷	-10.6498
捏	-10.6498
默	-10.6498
诵	-10.6498
凳	-10.6498
描	-10.6498
尔	-10.6498
糟	-10.6498
傍	-10.6498
低了头	-10.6498
琼	-10.6499
谨	-10.6499
集	-10.6499
揣	-10.6499
涂	-10.6499
毁	-10.6499
不消	-10.6499
映	-10.6499
姻缘	-10.6499
凤凰	-10.65
〕	-10.65
娼妇	-10.65
诌	-10.65
宇	-10.65
掖	-10.65
律	-10.65
坐了一坐	-10.6501
脂粉	-10.6501
绊	-10.6501
一把拉住	-10.6502
轮流	-10.6502
江南	-10.6502
终久	-10.6502
埋怨	-10.6502
进益	-10.6502
使眼色	-10.6503
察院	-10.6503
没得	-10.6504
珍大奶奶	-10.6504
褂子	-10.6505
橱	-10.6505
叹气	-10.6505
柴	-10.6505
世职	-10.6505
擅	-10.6507
懒待	-10.6508
垂泪	-10.6508
纵然	-10.6509
刑部	-10.6509
仙姑	-10.6509
缘故	-10.651
可好	-10.651
带累	-10.651
给老太太	-10.651
关系	-10.651
汗巾子	-10.6511
猴儿	-10.6511
说这话	-10.6511
保养	-10.6511
手里拿着	-10.6513
林家的	-10.6514
亲密	-10.6514
如何使得	-10.6516
买办	-10.6519
天亮	-10.6519
廊下	-10.652
盘算	-10.6521
灯光	-10.6521
垂手	-10.6522
吃一杯	-10.6522
动静	-10.6523
也无益	-10.6523
女孩儿家	-10.6523
抱住	-10.6524
是个什么	-10.6526
大观园中	-10.6526
芸儿	-10.6527
新奇	-10.6529
琴姑娘	-10.6529
名姓	-10.653
两声	-10.653
了这半日	-10.6531
不过是个	-10.6532
风寒	-10.6532
管教	-10.6534
任意	-10.6535
开恩	-10.6539
假意	-10.6539
想一想	-10.6541
李贵等	-10.6541
看了一看	-10.6545
回了太太	-10.6549
四面	-10.655
养神	-10.6551
吃了茶	-10.6553
回头向	-10.6554
佳人	-10.6561
告诉了她	-10.6561
在那里呢	-10.6563
出息	-10.6566
父子	-10.6567
费事	-10.6567
出嫁	-10.6572
文书	-10.6574
倒觉	-10.6575
省事	-10.6576
一溜	-10.6577
取出	-10.6582
入官	-10.6583
这两天	-10.6583
一个个	-10.6585
正欲	-10.6598
正想着	-10.6598
呈上	-10.6611
若干	-10.6621
写出来	-10.6633
虽如此	-10.6633
包儿	-10.6637
抽身	-10.664
好意	-10.6643
迎着	-10.6646
由着	-10.6654
恨得	-10.6656
送东西	-10.6662
和你们	-10.6663
纵有	-10.6663
十二个	-10.6666
在园子里	-10.6674
土地	-10.6676
贾母便问	-10.6681
妇人	-10.6682
那一年	-10.6685
都笑说	-10.6688
我们家里	-10.6704
众丫鬟	-10.671
咱们这里	-10.6712
查问	-10.6715
满口	-10.6718
几家	-10.6718
这也罢了	-10.6719
下棋	-10.672
分头	-10.6724
真正	-10.6727
提着	-10.6746
骂我	-10.6749
在房中	-10.6767
便叫人	-10.6767
王夫人处	-10.6774
回明了	-10.6775
寻死	-10.6788
说了一句	-10.6795
一向	-10.6795
应着	-10.6803
你该	-10.6806
我说你	-10.6811
和袭人	-10.6811
倒不如	-10.6814
尽心	-10.682
厨	-10.6821
变了	-10.685
要紧的事	-10.685
原为	-10.6871
有一位	-10.6873
查看	-10.6876
虽不能	-10.6876
下马	-10.6886
送人	-10.6888
前人	-10.6891
若不是	-10.6893
多病	-10.6899
一个小丫头	-10.6904
不舍	-10.6911
素来	-10.6912
赶上来	-10.6916
相看	-10.6918
有一种	-10.6919
掉了	-10.6952
方可	-10.696
正面	-10.696
不留心	-10.6972
说错了	-10.6978
众小厮	-10.6978
只得回来	-10.6984
掏	-10.6987
番	-10.6993
带了来	-10.6994
往那里去	-10.6997
这一去	-10.7
揭起	-10.7002
门上的人	-10.7046
骰子	-10.7054
东道	-10.707
拜见	-10.7087
不乐	-10.7107
众人都说	-10.7109
送信	-10.7116
可比	-10.7118
碰在	-10.7121
事多	-10.7124
无趣	-10.7129
大舅	-10.713
这会子还	-10.7142
在跟前	-10.7143
颗	-10.7147
我母亲	-10.7147
想要	-10.7159
满屋	-10.7165
在这里呢	-10.7166
这点子	-10.7169
各有	-10.7176
未及	-10.7177
这倒是	-10.7199
裤	-10.7212
昨	-10.7216
带他	-10.7219
俗语	-10.7221
腔	-10.723
展	-10.7232
▁凤姐听了	-10.7234
搂	-10.7235
是正经	-10.7236
类	-10.7237
己	-10.7238
不上来	-10.7239
扎挣	-10.7243
独自	-10.7247
帝	-10.7249
膝	-10.7249
不中用了	-10.7251
莺	-10.7251
乳	-10.7254
相公	-10.7254
闺阁	-10.7254
态	-10.7255
就走了	-10.7259
赵堂官	-10.726
糖	-10.726
谏	-10.7261
乩	-10.7262
缠绵	-10.7262
摸不着	-10.7262
稀	-10.7262
苏州	-10.7263
胀	-10.7263
窑	-10.7263
膏	-10.7263
绛	-10.7263
令郎	-10.7264
恃	-10.7264
荷叶	-10.7264
裘	-10.7264
炸	-10.7264
敛	-10.7265
雁	-10.7265
苏	-10.7265
畅	-10.7265
斟酌	-10.7265
眼圈儿	-10.7266
咬	-10.7266
驱	-10.7266
殊不知	-10.7266
搪塞	-10.7267
腊	-10.7267
颇	-10.7267
岔	-10.7267
憨	-10.7267
丛	-10.7267
掉下泪来	-10.7267
笺	-10.7267
乍	-10.7267
夭	-10.7267
喉	-10.7267
你母亲	-10.7267
嫩	-10.7267
围屏	-10.7267
蜂	-10.7267
烘	-10.7267
藤	-10.7267
逞	-10.7267
摸不着头脑	-10.7268
晌午	-10.7268
乞	-10.7268
主仆	-10.7268
曹	-10.7268
褪	-10.7268
殷勤	-10.7268
爹	-10.7268
旷	-10.7268
花自芳	-10.7269
逸	-10.7269
忌	-10.7269
婢	-10.7269
古董	-10.7269
侵	-10.7269
繁	-10.7269
闪	-10.7269
鸣	-10.7269
妆奁	-10.7269
浑	-10.727
资	-10.727
”、“	-10.727
倒了茶来	-10.727
渍	-10.727
世袭	-10.727
杜	-10.727
官员	-10.727
建	-10.727
毫无	-10.727
这么大年纪	-10.7271
忽又想起	-10.7271
封肃	-10.7271
根基	-10.7271
棺	-10.7271
馔	-10.7271
坐一坐	-10.7272
攻	-10.7273
通灵	-10.7273
赵嬷嬷	-10.7273
果品	-10.7273
溺爱	-10.7273
丢开手	-10.7273
换了衣服	-10.7273
轻薄	-10.7274
靠背	-10.7274
鲍二家的	-10.7274
拜寿	-10.7274
明日一早	-10.7275
铺盖	-10.7275
作揖	-10.7275
险	-10.7276
种种	-10.7276
更是	-10.7276
小子们	-10.7276
相伴	-10.7277
只留	-10.7277
景况	-10.7277
相逢	-10.7278
各样	-10.728
耳边	-10.728
孙女儿	-10.728
明儿一早	-10.728
提笔	-10.7281
携手	-10.7281
个信儿	-10.7284
流泪	-10.7284
穿堂	-10.7285
也有个	-10.7287
痛哭	-10.7287
廊上	-10.7288
亲戚们	-10.7289
出病来	-10.729
说了几句话	-10.7291
利钱	-10.7294
赔不是	-10.7294
风雨	-10.7296
老太太的事	-10.7297
搂着	-10.7297
鼻子	-10.7298
子侄	-10.7299
痰盒	-10.7299
一群人	-10.7299
围随	-10.7301
痴情	-10.7301
各各	-10.7301
碟子	-10.7301
新闻	-10.7301
陪房	-10.7302
就连	-10.7302
八月	-10.7305
把手	-10.7306
用不着	-10.7306
依言	-10.7306
捧过	-10.7307
跟随	-10.7307
工部	-10.7308
两口子	-10.7308
原系	-10.7308
还不知道呢	-10.7309
自己却	-10.7309
有本事	-10.731
》《	-10.7311
上写着	-10.7311
九回	-10.7316
一肚子	-10.7317
城里	-10.7317
共有	-10.7321
暗中	-10.7322
狗儿	-10.7323
里边	-10.7326
请奶奶	-10.7327
傻子	-10.7328
走出来	-10.7334
坐车	-10.7334
痴心	-10.7334
邢姑娘	-10.7335
赏月	-10.7336
唤了	-10.7337
个明白人	-10.734
三爷	-10.7341
子孙	-10.7345
内外	-10.735
女先儿	-10.7354
坐了一回	-10.7354
上炕	-10.7355
大愈	-10.7357
想头	-10.7359
一壁	-10.7362
在院内	-10.7363
亏得	-10.7363
也不顾	-10.7365
可恨	-10.7369
但见	-10.737
做官	-10.7371
亲身	-10.7374
也没什么	-10.7375
叫了来	-10.738
身上不好	-10.738
哄着	-10.738
只装	-10.7382
圣人	-10.7384
拍手道	-10.7385
天生	-10.7386
等候	-10.7387
开口	-10.7389
杏花	-10.7391
三月	-10.7392
没处	-10.7392
主儿	-10.7396
往常	-10.74
妨碍	-10.7403
家塾	-10.7405
看了一回	-10.7408
我想着	-10.7411
掷下	-10.7413
无干	-10.7418
实时	-10.742
什么意思	-10.7422
发作	-10.7426
疼她	-10.7426
三字	-10.7427
做个	-10.7428
死后	-10.7434
早早	-10.7436
隔着	-10.744
正该	-10.7446
换上	-10.7446
紫鹃听了	-10.7448
领着	-10.745
的恩典	-10.746
正月	-10.7464
我记得	-10.7466
当中	-10.747
’,‘	-10.7499
四回	-10.7503
也觉	-10.7506
好似	-10.751
两个丫头	-10.7511
一二年	-10.7518
奉旨	-10.7522
起坐	-10.753
另有	-10.7534
声儿	-10.7535
是正理	-10.7543
倒像是	-10.7548
所见	-10.755
家乡	-10.7554
之礼	-10.7554
画着	-10.7561
娘家	-10.7573
却不知	-10.7586
▁且说宝玉	-10.759
哪里有	-10.7597
坐起来	-10.7616
张口	-10.7625
从头	-10.7631
只管放心	-10.7633
已知	-10.7634
一刻	-10.7636
件事	-10.764
那小丫头子	-10.7647
暗暗	-10.7653
再不能	-10.7661
都在那里	-10.7667
已死	-10.7674
害了	-10.7686
请问	-10.7689
之日	-10.7691
些话	-10.7695
名叫	-10.7695
勾起	-10.7695
迷了	-10.7699
竟把	-10.7702
了几天	-10.7703
亏了	-10.7724
红梅	-10.7726
了两三	-10.7726
输	-10.7729
好东西	-10.7729
大杯	-10.773
瞧瞧去	-10.7735
:’	-10.7743
趁便	-10.7751
也不曾	-10.7763
带进	-10.7763
定是	-10.7766
老爷们	-10.777
也是这样	-10.7775
脸红	-10.7776
▁贾蓉	-10.7787
抄了	-10.7788
也算是	-10.7792
说一句	-10.7805
回家来	-10.781
正事	-10.7813
小时	-10.7839
不离	-10.7844
是最	-10.7866
里外	-10.7868
拿起来	-10.7871
▁话说宝玉	-10.7874
就有了	-10.7878
碰见	-10.7884
在窗外	-10.789
便上来	-10.7896
没见过	-10.7903
惹人	-10.7915
不理会	-10.7928
便骂	-10.7933
连夜	-10.7947
亦无	-10.7952
别提	-10.7967
二房	-10.7967
稳	-10.7969
十九	-10.7971
命人将	-10.7995
一世	-10.7996
忙命人	-10.7996
员	-10.8001
也没有什么	-10.8003
只会	-10.8008
纸钱	-10.8009
求太太	-10.801
二十两	-10.8011
明明	-10.8019
说闲话	-10.8021
凤姐儿忙	-10.8032
十年	-10.8033
贾母这边	-10.8055
宝叔	-10.8057
那个人	-10.8057
太平	-10.8061
怎么处	-10.8069
他老子	-10.8074
不记得	-10.8075
汗巾	-10.8082
......	-10.8087
慰	-10.8088
柔	-10.8091
籍	-10.8092
耽误了	-10.8092
绪	-10.8093
斑	-10.8093
泻	-10.8093
绦	-10.8094
蜜	-10.8094
昼	-10.8094
撮	-10.8094
怡	-10.8095
蕊	-10.8095
株	-10.8096
忌讳	-10.8096
宦	-10.8096
太虚幻境	-10.8096
伤起心来	-10.8096
槅	-10.8096
差不多	-10.8097
咚	-10.8097
锅	-10.8097
点缀	-10.8097
肋	-10.8097
呜呜咽咽	-10.8098
涉	-10.8098
这块玉	-10.8098
蛇	-10.8098
蘅	-10.8098
课	-10.8098
宽慰	-10.8099
兑	-10.8099
爷儿两个	-10.8099
铰	-10.8099
网	-10.8099
貂	-10.8099
嵌	-10.8099
说说笑笑	-10.81
四两	-10.81
谷	-10.81
伶	-10.81
姜	-10.81
萍	-10.8101
溪	-10.8101
麟	-10.8101
摩	-10.8101
奖	-10.8101
挡	-10.8101
沁芳	-10.8101
魁	-10.8101
丽	-10.8101
弊	-10.8101
我且问你	-10.8101
暮	-10.8101
悲戚	-10.8101
盐	-10.8101
霸	-10.8101
梨	-10.8101
踩	-10.8101
殓	-10.8101
厉	-10.8101
昼夜	-10.8101
涕	-10.8101
鄙	-10.8101
去逛逛	-10.8101
保佑	-10.8102
耻	-10.8102
首饰	-10.8102
撩	-10.8102
-	-10.8102
波	-10.8102
漱了口	-10.8103
团圆	-10.8103
瓣	-10.8103
鸡蛋	-10.8103
粘	-10.8103
堤	-10.8103
排场	-10.8103
模糊	-10.8103
朦	-10.8103
塞责	-10.8103
大笑起来	-10.8103
胡思乱想	-10.8103
织	-10.8103
漱盂	-10.8103
兽	-10.8103
揪	-10.8104
南京	-10.8104
肆	-10.8104
凄凉	-10.8104
往潇湘馆来	-10.8104
可怜见的	-10.8104
往贾母处来	-10.8104
笔墨	-10.8105
笋	-10.8105
茗	-10.8105
忍不住	-10.8105
滥	-10.8105
慌慌张张	-10.8106
沁芳亭	-10.8106
遵	-10.8106
渐次	-10.8106
划	-10.8106
好好儿的	-10.8106
暑	-10.8106
薨	-10.8107
空空道人	-10.8107
村庄	-10.8108
五回	-10.8108
欠身	-10.8109
喜悦	-10.811
央求	-10.811
穿戴	-10.8112
一辈的	-10.8112
老尼	-10.8112
必须	-10.8112
提醒了	-10.8113
镯子	-10.8115
除非	-10.8115
贾菌	-10.8115
阎王	-10.8115
旺儿媳妇	-10.8116
赖大家的	-10.8116
说这些话	-10.8116
相貌	-10.8117
小孩子家	-10.8117
出阁	-10.8118
软了	-10.8119
家眷	-10.812
钱粮	-10.812
修行	-10.8123
幸喜	-10.8123
医生	-10.8124
学房里	-10.8126
小旦	-10.8126
连忙答应	-10.8128
从此后	-10.8128
之状	-10.813
周全	-10.813
扎挣着	-10.8132
不妨事	-10.8134
如海	-10.8137
阶下	-10.8137
二叔叔	-10.8137
声张	-10.8137
歇歇儿	-10.8139
游廊	-10.8139
东风	-10.814
妈妈们	-10.814
二回	-10.8143
过日子	-10.8143
分离	-10.8144
单管	-10.8147
回明贾母	-10.8151
两个姑子	-10.8152
六回	-10.8153
七回	-10.8157
亦系	-10.8158
满屋里	-10.8158
看屋子	-10.8159
安身	-10.8163
那道人	-10.8163
折变	-10.8166
一径去了	-10.8167
到潇湘馆	-10.8167
说嘴	-10.8168
答应了一声	-10.817
也不枉	-10.817
丧事	-10.817
也顾不得	-10.8172
不敢违拗	-10.8172
随意	-10.818
戚	-10.818
歇下	-10.818
五日	-10.8181
要求	-10.8185
不在意	-10.8186
打死了	-10.8186
长安	-10.8187
八回	-10.8189
随手	-10.819
羞得	-10.8191
不枉	-10.8202
照料	-10.8202
如今且说	-10.8205
年老	-10.8206
壁上	-10.8207
回禀	-10.8209
惊醒	-10.821
难以	-10.8211
的声音	-10.8212
是什么意思	-10.8214
须要	-10.8215
方想起	-10.8221
告诉我们	-10.8226
鬼鬼祟祟的	-10.8231
可叹	-10.8232
疼他	-10.8233
之罪	-10.8238
过活	-10.824
三年	-10.824
烧纸	-10.8253
的女孩儿	-10.8255
》;	-10.826
两个女人	-10.8267
传话	-10.8267
只见一个小丫头	-10.8269
长大	-10.8269
之语	-10.8275
老太太屋里	-10.8275
小老婆	-10.8282
我何曾	-10.8285
有余	-10.8297
十来个	-10.8299
那一天	-10.831
大厅	-10.8311
还求	-10.8311
紫鹃姐姐	-10.8312
近因	-10.8315
快走	-10.8319
给她们	-10.832
生死	-10.8325
宝钗听说	-10.8326
眼中	-10.8328
下落	-10.833
下手	-10.8332
贾母便说	-10.8335
四妹妹	-10.8336
虽没	-10.8346
心神	-10.8346
▁却说宝玉	-10.8355
▁说毕	-10.8356
自然要	-10.8372
落得	-10.8379
也不少	-10.8387
我也要	-10.8389
睡得	-10.8392
轿子	-10.8392
十两银子	-10.8396
出身	-10.8397
厢房	-10.8402
现成	-10.8403
不对	-10.8415
扶起	-10.8416
在身上	-10.8416
不希罕	-10.8419
出了门	-10.8427
在园内	-10.8434
推她	-10.8451
原是个	-10.8455
大礼	-10.8466
并几个	-10.8469
以致	-10.8472
一个老婆子	-10.8475
你也该	-10.848
也不算	-10.8489
她嫂子	-10.8491
还想	-10.8497
还可以	-10.8507
六十	-10.8528
出许多	-10.8549
管着	-10.8563
满脸	-10.8573
穿上	-10.8597
撞见	-10.8598
藏在	-10.8602
不准	-10.8614
欲要	-10.8615
来升	-10.8626
哪里就	-10.863
三回	-10.8633
什么要紧	-10.8635
之内	-10.8636
凤姐听说	-10.8644
也不过是	-10.8653
写的是	-10.8661
不干净	-10.8664
横竖有	-10.8668
长叹	-10.8674
两下	-10.8684
送了来	-10.8688
见她这般	-10.8691
待他	-10.8704
不收	-10.8704
饿了	-10.8708
送过去	-10.8709
和李纨	-10.8715
喝着	-10.8735
疼得	-10.8736
与众人	-10.8736
未敢	-10.8751
在房里	-10.8766
喜事	-10.8778
远近	-10.8793
平儿听了	-10.8805
问是谁	-10.8809
一席	-10.8818
回来告诉	-10.882
这可不是	-10.8821
饭吃	-10.8856
二钱	-10.8863
慢慢	-10.8871
远远	-10.8883
逛去	-10.8886
巾	-10.889
两个小丫头	-10.8919
啐	-10.8928
带上	-10.8929
心性	-10.8929
重重	-10.8953
帕子	-10.8956
五个	-10.8957
股	-10.8965
祥	-10.8973
甚好	-10.8976
肚	-10.8977
诗社	-10.8977
方回来	-10.8984
帽	-10.8985
吏	-10.8986
琪官	-10.8988
我看你	-10.8993
赘	-10.8994
揖	-10.8994
晕	-10.8995
在京	-10.8995
陆	-10.8998
第四	-10.8998
渴	-10.9002
拚	-10.9002
挣	-10.9003
哼	-10.9004
劲	-10.9005
窄	-10.9005
州	-10.9005
导	-10.9006
老世翁	-10.9006
炎	-10.9007
惭	-10.9007
哧	-10.9007
淹	-10.9007
饥	-10.9007
茄子	-10.9007
沙	-10.9007
人人都说	-10.9008
饼	-10.9008
孟	-10.9008
纳	-10.9008
鸦	-10.9008
屄	-10.9008
婚	-10.9008
纤	-10.9008
材	-10.9008
甲	-10.9008
晦气	-10.9009
放声大哭	-10.9009
锭	-10.9009
茅	-10.9009
硝	-10.9009
噎	-10.9009
那块玉	-10.9009
耀	-10.9009
寅	-10.901
庸	-10.901
辣	-10.901
技	-10.901
皱	-10.901
灵柩	-10.901
需	-10.901
巴巴的	-10.901
笠	-10.901
膀	-10.9011
洗了手	-10.9011
潜	-10.9011
蓉哥儿	-10.9011
哦	-10.9011
衬	-10.9011
豪	-10.9011
嗳呀	-10.9011
越想越	-10.9011
腥	-10.9011
嗓	-10.9011
不值什么	-10.9011
恒王	-10.9011
滴下泪来	-10.9011
简	-10.9011
弓	-10.9011
叮	-10.9011
征	-10.9011
晾	-10.9012
恤	-10.9012
肺	-10.9012
增	-10.9012
一闻此	-10.9012
盥漱	-10.9012
檀	-10.9012
元宵	-10.9012
悲感	-10.9012
矮	-10.9012
渡	-10.9012
好端端	-10.9012
再迟	-10.9012
耳朵	-10.9012
的示下	-10.9012
计议	-10.9013
翻来覆去	-10.9013
不耐烦	-10.9013
大惊小怪	-10.9013
森	-10.9013
在枕上	-10.9013
一趟	-10.9013
基	-10.9013
姬妾	-10.9013
隐隐	-10.9013
浇	-10.9013
榭	-10.9013
林如海	-10.9013
饱	-10.9013
掸	-10.9013
白白的	-10.9013
也只得罢了	-10.9014
千古	-10.9014
广	-10.9014
痨	-10.9014
强盗	-10.9014
贾蓉之妻	-10.9015
患	-10.9015
捣	-10.9015
不敢作声	-10.9015
忘记	-10.9015
锄药	-10.9015
轻易	-10.9016
不犯着	-10.9016
侍立	-10.9017
女眷	-10.9017
泪痕	-10.9017
想得到	-10.9018
呼唤	-10.9019
的念头	-10.9019
黄昏	-10.9019
脉息	-10.902
不敢言语	-10.902
吃了晚饭	-10.902
尤老	-10.9021
对象	-10.9021
火盆	-10.9022
贺喜	-10.9022
法师	-10.9022
薛大爷	-10.9023
正月里	-10.9023
发呆	-10.9023
做生日	-10.9023
捉弄	-10.9024
众位	-10.9025
惊疑	-10.9025
风吹	-10.9025
有些意思	-10.9025
结果	-10.9026
名曰	-10.9026
诸公	-10.9026
从后门	-10.9027
当铺	-10.9028
书办	-10.9028
等类	-10.9028
什么相干	-10.9029
这些日子	-10.9032
四样	-10.9033
宝妹妹	-10.9033
焚香	-10.9033
王大夫	-10.9034
对牌	-10.9039
池中	-10.904
吃多了	-10.904
包管	-10.9042
只得勉强	-10.9043
薄命	-10.9045
走到跟前	-10.9046
说闲话儿	-10.9047
林姐姐	-10.9048
之症	-10.905
叫小丫头	-10.905
断不肯	-10.9051
无缘	-10.9053
嘻嘻的笑	-10.9054
通红	-10.9055
议定	-10.9056
碰头	-10.9058
风光	-10.9058
贾府中	-10.906
接连	-10.9063
史姑娘	-10.9064
你老子	-10.9064
相思	-10.9064
场中	-10.9064
揭开	-10.9065
瓜果	-10.9067
作辞	-10.9067
供给	-10.9068
这个地方	-10.9068
当今	-10.9069
取笑儿	-10.907
别致	-10.9071
亲热	-10.9071
是怎么了	-10.9073
立意	-10.9073
荣府中	-10.9073
虽未	-10.9073
失手	-10.9075
茶饭	-10.9075
▁第一百	-10.9077
快把	-10.9078
接待	-10.9081
情性	-10.9083
簪子	-10.9084
老奶奶	-10.9085
披着	-10.9085
手脚	-10.9087
可巧遇见	-10.9088
山水	-10.909
往外走	-10.9095
小童	-10.9096
第一个	-10.9097
大夫来了	-10.9101
木头	-10.9101
开了门	-10.9102
当面	-10.9104
面如	-10.9104
中秋	-10.9105
着些儿	-10.9108
门户	-10.9108
搭着	-10.9109
上司	-10.9113
由他	-10.9113
或如	-10.9118
行动	-10.9119
名声	-10.9119
在后面	-10.9122
之句	-10.9125
方知是	-10.9125
哄他	-10.9127
那么着	-10.9127
弟子	-10.9131
手巾	-10.9133
中间	-10.9133
一盏	-10.9138
遣人去	-10.9139
脚下	-10.9141
太太屋里	-10.9145
求亲	-10.9147
板子	-10.9147
手帕	-10.9147
藏着	-10.9151
世人都	-10.9152
打嘴	-10.9157
庄子	-10.9157
走入	-10.9159
何用	-10.9159
情理	-10.9161
根子	-10.9162
想必是	-10.9167
贾母那边	-10.9167
搀扶	-10.917
叫雪雁	-10.9173
咱们家里	-10.9175
若何	-10.9175
珠子	-10.9177
是怎么个	-10.9177
还有谁	-10.9179
也忘了	-10.9179
到各处	-10.919
照样	-10.9199
不得已	-10.9203
摘下	-10.9203
烫了	-10.9206
伺候着	-10.9207
大半	-10.9212
引得	-10.9214
酒后	-10.9226
好兄弟	-10.9226
我把你	-10.9229
竟比	-10.9229
跟着老太太	-10.9234
或可	-10.9238
难受	-10.9244
不宁	-10.9248
吃亏	-10.925
怎么不见	-10.9252
次日一早	-10.9253
些没要紧的	-10.9254
两字	-10.9258
想到这里	-10.926
若只管	-10.9262
疏远	-10.9274
听她说	-10.9276
望着	-10.9283
之女	-10.9283
甄	-10.9292
还是这样	-10.9293
近前	-10.9294
笑个不住	-10.9298
也须得	-10.9303
弄到	-10.9307
依着	-10.9307
门槛	-10.9313
引着	-10.9313
枕头	-10.9327
平姐姐	-10.9336
这个病	-10.9338
山上	-10.9348
进宫	-10.935
也容易	-10.9351
骂着	-10.9352
收起来	-10.9359
也不及	-10.9364
那贾芸	-10.9364
托人	-10.9368
千里	-10.9375
这些个	-10.9378
说些什么	-10.9393
逃走	-10.9394
太过	-10.9405
独是	-10.9411
心里想着	-10.9412
又何必	-10.9434
是玩话	-10.9438
烦她	-10.9447
只以	-10.9452
俗人	-10.9454
便伸手	-10.946
姐姐妹妹	-10.9476
因思	-10.9482
袭人见他	-10.9492
几个月	-10.9493
贾母因说	-10.9532
和平	-10.954
两碗	-10.9543
哄你	-10.9544
做主	-10.9558
又哭起来	-10.9558
姑娘们都	-10.9563
还该	-10.9567
吃完了	-10.9569
春天	-10.9573
我也知道	-10.9593
心愿	-10.9595
▁正说	-10.9604
不知是谁	-10.9642
文官等	-10.9645
雇了	-10.9647
▁这里贾母	-10.9648
叫醒	-10.9657
听见外头	-10.967
见如此	-10.9672
屋子里	-10.9686
▁众人听了	-10.9687
得慌	-10.9707
姨奶奶	-10.9731
王府	-10.9742
耽搁了	-10.9743
且不必	-10.9749
接过来	-10.9763
恩典	-10.9766
得了不得	-10.9776
帕	-10.979
看完	-10.9804
念念	-10.9815
各自散	-10.983
花草	-10.9879
见这般	-10.9902
方才的话	-10.9919
那里来的	-10.9931
至次日	-10.9942
不知怎么样	-10.9961
不俗	-10.9962
焉	-10.9964
向外	-10.9965
大胆	-10.997
公婆	-10.9973
别混	-10.9975
话未	-10.9979
点灯	-10.9981
拿话	-10.9985
颦	-10.9987
金钏	-10.9991
昭	-10.9992
捉	-10.9996
尼	-10.9996
辨	-10.9996
脾	-10.9997
颠	-10.9997
蛋	-10.9997
锦衣府	-10.9998
从今以后	-11.0001
记挂	-11.0001
棒	-11.0001
晨	-11.0002
研	-11.0002
戒指	-11.0003
骚	-11.0004
贡	-11.0004
胃	-11.0004
迸	-11.0005
低着头	-11.0005
废	-11.0006
懒懒的	-11.0006
赃	-11.0007
剥	-11.0007
平安州	-11.0007
抵	-11.0007
陵	-11.0007
昔	-11.0007
设下	-11.0007
梯	-11.0007
贤良	-11.0007
温习	-11.0008
嗟	-11.0008
襟	-11.0008
幺	-11.0008
仿	-11.0008
一叠声	-11.0008
疯傻	-11.0008
扬州	-11.0008
菜蔬	-11.0008
癞	-11.0009
禁不起	-11.0009
呸	-11.0009
拽	-11.0009
术	-11.0009
灰鼠	-11.0009
谤	-11.0009
互相	-11.0009
陷	-11.0009
掰	-11.0009
昧	-11.0009
没好气	-11.0009
伺侯	-11.0009
立起身来	-11.0009
嚎	-11.001
指示	-11.001
狐疑	-11.001
熨	-11.001
踱	-11.001
五百两	-11.001
祭祀	-11.001
谣言	-11.001
剔	-11.001
喧	-11.001
睬	-11.001
青埂峰	-11.001
蓄	-11.001
科	-11.001
返	-11.0011
宵	-11.0011
训	-11.0011
盈	-11.0011
▁第七十	-11.0011
▁第九十	-11.0011
▁第八十	-11.0011
搜检	-11.0011
爽利	-11.0011
玄	-11.0011
▁第六十	-11.0011
怀古其	-11.0011
淫妇	-11.0011
甄士隐	-11.0011
酿	-11.0011
寓	-11.0011
蟒	-11.0011
体谅	-11.0011
▁第五十	-11.0011
低头不语	-11.0012
▁第四十	-11.0012
抄检	-11.0012
▁第三十	-11.0012
无精打彩	-11.0012
赎罪	-11.0012
窍	-11.0012
刁	-11.0012
蹬	-11.0012
瓢	-11.0012
林四娘	-11.0012
羡慕	-11.0012
拢	-11.0012
萝	-11.0012
几岁了	-11.0012
身材	-11.0012
症候	-11.0013
桌椅	-11.0013
▁第二十	-11.0013
项圈	-11.0013
俏	-11.0013
回过头来	-11.0014
的去处	-11.0014
半盏	-11.0014
计较	-11.0014
胞	-11.0014
跨	-11.0014
惶	-11.0014
召	-11.0014
喝了一口	-11.0014
讪讪的	-11.0014
冯大爷	-11.0014
这件东西	-11.0014
性格	-11.0014
拄	-11.0014
依允	-11.0015
斯文	-11.0015
奚落	-11.0015
脸飞红	-11.0015
茜雪	-11.0016
绰	-11.0016
含羞	-11.0016
兰哥儿	-11.0016
赖尚荣	-11.0016
吃了半碗	-11.0016
懒怠	-11.0016
猜疑	-11.0016
茯苓霜	-11.0016
外祖母	-11.0017
舜	-11.0017
安顿	-11.0017
滞	-11.0017
胶	-11.0017
左边	-11.0017
馒头庵	-11.0017
断乎	-11.0018
越性	-11.0018
吃过饭	-11.0018
晃	-11.0018
蟠儿	-11.0018
西洋	-11.0018
忘八	-11.0019
窗户	-11.0019
勾引	-11.0019
调停	-11.002
务必	-11.002
回复了	-11.0021
东南	-11.0021
妖怪	-11.0021
两匹	-11.0021
谁还敢	-11.0021
柜子	-11.0022
安插	-11.0022
哭喊	-11.0023
挨次	-11.0023
照顾	-11.0023
更兼	-11.0024
孙子媳妇	-11.0024
▁第十	-11.0025
任凭	-11.0025
宽衣	-11.0025
脚步	-11.0026
甚至于	-11.0026
四句	-11.0027
狠命	-11.0027
整理	-11.0027
▁第一百十	-11.0027
指望	-11.0029
千秋	-11.003
保重	-11.003
草木	-11.003
该班	-11.0031
第二天	-11.0031
作伴儿	-11.0031
哪里肯	-11.0033
叩头	-11.0033
依你说	-11.0034
五彩	-11.0035
作伴	-11.0035
说了两句	-11.0035
悄问	-11.0036
趁早	-11.0036
半碗	-11.0037
小孩子们	-11.0038
冷淡	-11.0038
家宴	-11.0039
回头看时	-11.004
石青	-11.0041
打趣	-11.0041
丢了东西	-11.0041
所致	-11.0042
家计	-11.0042
一幅	-11.0042
倒唬了一跳	-11.0043
亦曾	-11.0044
智能儿	-11.0045
金凤	-11.0045
回京	-11.0045
这早晚	-11.0046
不必细	-11.0047
依然	-11.0048
言谈	-11.0052
我劝你	-11.0052
茶杯	-11.0053
礼物	-11.0053
私情	-11.0053
怀内	-11.0054
略觉	-11.0055
项上	-11.0056
▁正在	-11.0057
五色	-11.0057
用功	-11.0059
走一趟	-11.0059
十四	-11.006
更妙	-11.006
最喜	-11.0061
风俗	-11.0062
可使得	-11.0063
和他说话	-11.0064
起居	-11.0064
傻大姐	-11.0065
入朝	-11.0065
正房	-11.0066
讨情	-11.0067
用度	-11.0068
次后	-11.0068
改日	-11.0069
顶头	-11.007
暖和	-11.0072
可恶	-11.0073
费用	-11.0073
原来如此	-11.0073
高明	-11.0078
世面	-11.0079
自那日	-11.0082
二嫂子	-11.0086
十月	-11.0088
四丫头	-11.0091
合眼	-11.0093
珍儿	-11.0096
叫你去	-11.0097
半月	-11.0098
没主意	-11.0098
断不能	-11.0103
相对	-11.0104
少年	-11.0105
某人	-11.0107
明月	-11.0108
愚人	-11.0114
亦如	-11.0114
族中人	-11.0114
兰儿	-11.0115
花神	-11.0116
找寻	-11.0116
做诗	-11.0117
歇歇罢	-11.0118
一个男人	-11.012
病重	-11.0122
曲子	-11.0123
四书	-11.0125
咳	-11.0129
瞒着	-11.013
动手	-11.013
周瑞家的听了	-11.0131
还不够	-11.0134
可好些	-11.0143
拍着	-11.0148
发烧	-11.0152
又好笑	-11.0155
槛外	-11.0156
见过贾母	-11.0158
没良心	-11.0158
自叹	-11.0161
皆知	-11.0163
吵闹	-11.0169
常情	-11.017
早被	-11.0172
看不见	-11.0173
送礼	-11.0173
择日	-11.0175
有造化	-11.0177
那眼泪	-11.0178
给二爷	-11.0183
回了贾母	-11.0183
性急	-11.0189
到跟前	-11.02
递与宝玉	-11.021
何方	-11.022
罚他	-11.0222
定主意	-11.0225
那时候	-11.023
真真是	-11.0231
屋门	-11.0236
竹子	-11.024
也不理会	-11.0243
一群	-11.0246
无声	-11.0247
看上了	-11.0257
何故	-11.0261
都没了	-11.0264
做什么呢	-11.0267
小巧	-11.0269
不敢造次	-11.0273
孙家	-11.0273
无非	-11.0281
偏心	-11.0287
怎得	-11.0288
冷眼	-11.0299
处治	-11.0312
丢开	-11.0316
千万别	-11.0316
半年	-11.032
不敢惊动	-11.0353
告诉了他	-11.0354
何物	-11.0355
一会儿	-11.036
亲戚家	-11.0367
不害臊	-11.0372
周到	-11.0381
刘姥姥忙	-11.0411
几个字	-11.0422
九个	-11.0434
定礼	-11.0437
也不中用	-11.0445
五千	-11.0459
快出去	-11.0459
人丁	-11.0464
舅爷	-11.0482
头疼	-11.0502
事体	-11.0504
两年	-11.0511
送给	-11.0544
又想到	-11.0552
门上人	-11.0556
探头	-11.057
一试	-11.0579
听我说	-11.0615
到园	-11.0626
到贾母那边	-11.063
作成	-11.0631
办得	-11.0642
她三人	-11.0645
口内说	-11.0654
什么时候	-11.0659
也笑了	-11.066
欲待	-11.0678
懂	-11.0685
药死	-11.0704
在园中	-11.0705
厢	-11.0723
这么样	-11.0759
正经人	-11.0764
贾母便命	-11.0768
我的不是	-11.0771
二十四	-11.0772
个小子	-11.0789
便站起来	-11.0808
将自己的	-11.081
一个丫鬟	-11.0819
谁知竟	-11.082
后来听见	-11.0822
一遭	-11.0824
拍手笑	-11.0826
还敢	-11.0851
忙让坐	-11.0853
个不住	-11.0858
有人回	-11.087
花园	-11.0882
众丫头	-11.0901
早晚	-11.0923
能干	-11.0923
就回来了	-11.0931
听见有人	-11.0943
凡事	-11.0947
只道是	-11.0947
没良心的	-11.0952
政老	-11.0971
两首	-11.0982
▁第	-11.1056
咧	-11.1071
众人都笑了	-11.1072
婿	-11.1078
芹	-11.1093
歹	-11.1096
笑劝	-11.1097
隆	-11.1101
褂	-11.1104
洗澡	-11.1104
猴	-11.1106
孔	-11.1106
允	-11.1107
刻薄	-11.1109
抿	-11.1109
玉钏	-11.1109
西平王	-11.111
冥	-11.1111
牛黄	-11.1111
谨慎	-11.1112
艺	-11.1113
博	-11.1113
番役	-11.1113
纯	-11.1114
袍	-11.1114
潇湘妃子	-11.1115
程日兴	-11.1115
炷	-11.1115
妖精	-11.1115
袱	-11.1115
伊	-11.1115
凿	-11.1116
繁华	-11.1116
育	-11.1116
茫茫	-11.1116
责	-11.1116
瑞	-11.1117
浸	-11.1117
晒	-11.1117
叹了一口气	-11.1117
喝了两口	-11.1117
驰	-11.1117
缓	-11.1118
姑苏	-11.1118
瞻	-11.1118
尼姑	-11.1118
聋	-11.1118
碌碌	-11.1118
筹	-11.1119
慨	-11.1119
特特的	-11.1119
作了一个揖	-11.1119
拉拉扯扯	-11.1119
拙	-11.1119
州县	-11.1119
臂	-11.1119
爆	-11.112
乌进孝	-11.112
鲛	-11.112
瑶	-11.112
衫	-11.112
搁不住	-11.112
柱	-11.112
说不出话来	-11.112
迈	-11.112
甄应嘉	-11.112
柄	-11.112
粒	-11.112
腌	-11.112
辖	-11.112
饥荒	-11.1121
咬牙	-11.1121
洪	-11.1121
爹娘	-11.1121
放在心上	-11.1121
嫦娥	-11.1121
观音	-11.1121
酱	-11.1121
安分守己	-11.1121
喜之不尽	-11.1121
幡	-11.1121
睹	-11.1121
倩	-11.1121
危	-11.1122
佳蕙	-11.1122
傅	-11.1122
蓑	-11.1122
原字为左	-11.1122
肃	-11.1122
旋	-11.1122
红楼梦	-11.1122
炮	-11.1122
捞	-11.1122
保得住	-11.1122
淋	-11.1122
抠	-11.1122
躺在床上	-11.1122
尘缘	-11.1122
杖	-11.1122
鬟	-11.1122
狠狠的	-11.1122
放在眼里	-11.1122
箫	-11.1122
斩	-11.1122
犬	-11.1122
纳罕	-11.1122
棠	-11.1123
潮	-11.1123
颓	-11.1123
栖	-11.1123
唠叨	-11.1123
嘘	-11.1123
馋	-11.1123
绒	-11.1123
下剩的	-11.1123
削	-11.1123
盟	-11.1123
授	-11.1123
小幺儿	-11.1123
栗子	-11.1123
姬	-11.1123
查抄	-11.1123
不遂心	-11.1123
一溜烟	-11.1124
腕	-11.1124
圃	-11.1124
喘吁吁的	-11.1124
损	-11.1124
芍药	-11.1124
珍大嫂子	-11.1124
鸳	-11.1124
经历	-11.1124
至园中	-11.1124
铺陈	-11.1124
蓼	-11.1124
有年纪的人	-11.1124
受委屈	-11.1125
外甥女儿	-11.1125
港	-11.1125
秋菱	-11.1125
蓉大奶奶	-11.1125
慈悲	-11.1125
尊贵	-11.1125
漱口	-11.1125
上面写着	-11.1125
掂	-11.1125
感冒	-11.1125
外藩	-11.1125
歪在床上	-11.1125
谈论	-11.1125
不舒服	-11.1125
岂不省事	-11.1126
孔雀	-11.1126
辫	-11.1126
上下人等	-11.1126
箱柜	-11.1126
功德	-11.1126
牌坊	-11.1126
身上不大好	-11.1126
工程	-11.1126
当真的	-11.1127
葛	-11.1127
打起帘子	-11.1127
谬	-11.1127
指甲	-11.1127
膏药	-11.1127
寡妇	-11.1127
厌烦	-11.1127
扯谎	-11.1127
嗐	-11.1128
崇	-11.1128
棉	-11.1128
应酬	-11.1128
纺	-11.1128
张材家的	-11.1128
从此以后	-11.113
原籍	-11.113
款待	-11.113
说了一回话	-11.113
十分欢喜	-11.1131
拆开	-11.1131
贾宅	-11.1131
限韵	-11.1131
昨儿晚上	-11.1132
含悲	-11.1132
旺儿家的	-11.1133
回到房中	-11.1133
老伯	-11.1134
景致	-11.1134
被窝	-11.1134
不见效	-11.1134
纸笔	-11.1134
礼部	-11.1135
奶妈子	-11.1135
莫非	-11.1135
摆布	-11.1135
供奉	-11.1136
周姨娘	-11.1136
进里间	-11.1136
侯门	-11.1136
冷子兴	-11.1137
搭讪着	-11.1137
头绪	-11.1137
可谓	-11.1138
梳头	-11.1138
太阳	-11.1138
侍女	-11.1139
望候	-11.1139
换衣服	-11.1139
各位	-11.1139
商议定了	-11.1139
冯家	-11.1141
可卿	-11.1141
孔子	-11.1141
第二日	-11.1142
有个原故	-11.1142
老嬷嬷们	-11.1144
五十两	-11.1145
痛哭起来	-11.1145
第一件	-11.1145
拜谢	-11.1146
吃斋	-11.1146
应承	-11.1146
如此这般	-11.1146
堂客	-11.1147
夜深	-11.1147
口角	-11.1148
完毕	-11.1148
女人们	-11.1149
俱全	-11.1149
葬花	-11.115
静养	-11.115
酒底	-11.1151
乳母	-11.1151
福寿	-11.1153
值钱	-11.1154
彩屏等	-11.1154
原想	-11.1155
一缕	-11.1155
自悔	-11.1155
鬼怪	-11.1156
片时	-11.1156
按数	-11.1156
断不可	-11.1157
毛病	-11.1158
还有一句话	-11.1158
不长进	-11.116
养活	-11.1161
挽回	-11.1163
命薄	-11.1163
王法	-11.1163
打扮得	-11.1163
饮酒	-11.1165
皆由	-11.1166
五间	-11.1166
迎春姊妹	-11.1167
眼睛里	-11.1169
以备	-11.1169
佛手	-11.1169
至晚间	-11.117
每月	-11.1171
是不中用的	-11.1171
悬心	-11.1171
众家人	-11.1171
劳动	-11.1172
为妻	-11.1173
之妻	-11.1174
两枝	-11.1176
窝儿	-11.1176
起社	-11.1178
正室	-11.1178
受礼	-11.1179
一腔	-11.118
也不敢言语	-11.1182
疼爱	-11.1183
庵里	-11.1184
这段	-11.1184
立身	-11.1186
高声	-11.1192
云丫头	-11.1195
添病	-11.1197
撵出去	-11.1201
此物	-11.1201
家业	-11.1203
就信了	-11.1206
闹出来	-11.1206
寻常	-11.1207
此系	-11.1209
我听听	-11.1209
手炉	-11.1209
披上	-11.1212
无味	-11.1212
忽想起	-11.1216
▁二人正	-11.1219
青缎	-11.1222
压倒	-11.1222
味儿	-11.1223
之辈	-11.1224
管不得	-11.1224
恰是	-11.1224
悬着	-11.1224
伏在	-11.1224
几个丫头	-11.1226
答应着出来	-11.1227
过来请安	-11.1229
岂不两	-11.1231
一匹	-11.1232
犹可	-11.1234
堆着	-11.1236
至今	-11.1237
架子	-11.1239
三则	-11.124
大海	-11.124
哄得	-11.1241
一两银子	-11.1242
管理	-11.1242
尚可	-11.1243
也无心	-11.1243
此信	-11.1244
养病	-11.1251
芳官听了	-11.1256
怎么办	-11.1261
这个样儿	-11.1262
发放	-11.1263
知会	-11.1264
花柳	-11.1266
神情	-11.127
这样一个人	-11.1277
二人皆	-11.1277
深为	-11.1279
之恩	-11.1285
祖上	-11.1291
下次	-11.1293
出力	-11.1294
到了这里	-11.1298
王夫人房中	-11.1302
出手来	-11.1306
爱听	-11.1313
亭子	-11.1321
病势	-11.1323
大轿	-11.1324
两个月	-11.1325
起人来	-11.1355
剪子	-11.1382
炕桌	-11.1388
我的命	-11.1388
既然	-11.139
至宁府	-11.1393
耗子	-11.1396
是那里来的	-11.1397
到五更	-11.1409
是假的	-11.1416
一串	-11.1416
摇手	-11.1418
了她来	-11.1438
只许	-11.1449
咽住	-11.1468
几首	-11.1472
似一天	-11.1477
忙转身	-11.1484
托生	-11.1517
各家	-11.153
度其	-11.154
嘴巴子	-11.1561
一副对	-11.1563
忙跪下	-11.1577
打发人送	-11.1578
全无	-11.159
多嘴	-11.1597
个样儿	-11.1606
只拣	-11.1609
叹了一声	-11.1649
看破	-11.1661
甄府	-11.1672
过生日	-11.1694
万不可	-11.1696
戏文	-11.1711
后院	-11.1712
劝劝	-11.1722
了两天	-11.1754
设法	-11.177
长进	-11.1771
咱	-11.1802
别生气	-11.1802
忙答应了	-11.1805
略好些	-11.1806
屋里的人	-11.1824
和你好	-11.1854
行走	-11.1913
怀中	-11.1929
漱	-11.1931
知觉	-11.1933
虚名	-11.1967
递过	-11.1976
百日	-11.1982
骨头	-11.1989
忙止	-11.2002
首诗	-11.2058
细细的告诉	-11.2117
帘外	-11.2137
面目	-11.214
五儿听了	-11.2157
算不得	-11.2159
心中自是	-11.2179
声音	-11.222
有几处	-11.223
羡	-11.2274
眼看着	-11.2279
部里	-11.2279
与二姐	-11.2314
安放	-11.2318
幅	-11.2325
叉	-11.2332
省俭	-11.2332
缕	-11.2334
陪笑说	-11.2341
缎子	-11.2344
协	-11.2347
哼哼	-11.2351
奶妈	-11.2352
刑	-11.2353
滋	-11.2353
件衣裳	-11.2354
翼	-11.2357
慎	-11.2358
膳	-11.2358
呵	-11.2359
轻狂	-11.236
外甥	-11.236
攀	-11.236
纪	-11.2361
杜撰	-11.2361
喂	-11.2362
缸	-11.2362
演习	-11.2362
履	-11.2363
砖	-11.2363
什	-11.2363
谱	-11.2364
畔	-11.2364
毫	-11.2364
感谢不尽	-11.2365
逆	-11.2365
嘲	-11.2365
诓	-11.2365
弹琴	-11.2365
戴权	-11.2365
捷	-11.2365
掩饰	-11.2365
豁	-11.2366
捐	-11.2366
夙	-11.2366
雾	-11.2366
屯	-11.2366
缉	-11.2366
敌	-11.2366
障	-11.2366
的情分	-11.2367
鉴	-11.2367
缓缓	-11.2367
唐突	-11.2367
姻	-11.2367
牡丹	-11.2367
靸	-11.2367
仓	-11.2367
捕	-11.2367
站起身来	-11.2367
吧	-11.2368
窥	-11.2368
瞪着眼	-11.2368
芦雪庵	-11.2368
轰	-11.2368
柩	-11.2368
谜	-11.2368
忏	-11.2368
英	-11.2369
怠	-11.2369
谅	-11.2369
参禅	-11.2369
驮	-11.2369
卜世仁	-11.2369
坚	-11.237
截	-11.237
萎	-11.237
炮仗	-11.237
阴司	-11.237
普	-11.237
骄	-11.237
奁	-11.237
喜不自	-11.237
想什么吃	-11.237
桶	-11.237
到这步田地	-11.2371
诺	-11.2371
洒泪	-11.2371
诘	-11.2371
泊	-11.2371
讪	-11.2371
俺	-11.2371
戒	-11.2371
荼	-11.2371
恍	-11.2371
贾琮	-11.2371
功勋	-11.2372
绡	-11.2372
会芳园	-11.2372
尊府	-11.2372
垂手侍立	-11.2372
恳切	-11.2372
周瑞的干儿子	-11.2372
趋	-11.2372
不必细述	-11.2372
蔷薇	-11.2372
张德辉	-11.2372
饯	-11.2372
嗳哟哟	-11.2372
亲朋	-11.2372
踹	-11.2372
诊脉	-11.2372
合上眼	-11.2372
璎	-11.2372
无法无天	-11.2372
了半截	-11.2372
漂	-11.2372
鲁	-11.2372
此是后话	-11.2372
促	-11.2373
躺在炕上	-11.2373
五百钱	-11.2373
邪祟	-11.2373
奶母	-11.2373
摆上饭来	-11.2373
荒唐	-11.2373
锡	-11.2373
一五一十	-11.2373
宰	-11.2373
篓	-11.2373
津	-11.2373
陛见	-11.2373
不敢则声	-11.2373
咸	-11.2373
嘻	-11.2373
张王氏	-11.2373
殴	-11.2373
顷	-11.2373
努	-11.2374
灿	-11.2374
雏	-11.2374
廊檐下	-11.2374
严紧	-11.2374
在老太太跟前	-11.2374
咯	-11.2374
点了一出	-11.2374
税	-11.2374
贯	-11.2374
斟了一杯	-11.2374
躬身	-11.2374
戌	-11.2374
哟	-11.2374
岳	-11.2374
抹骨牌	-11.2374
讯	-11.2374
惭愧	-11.2375
沙弥	-11.2375
依我的主意	-11.2375
团团	-11.2375
涎	-11.2375
涩	-11.2375
措	-11.2376
芸哥儿	-11.2376
哑	-11.2376
划拳	-11.2376
女学生	-11.2376
灵验	-11.2376
请安问好	-11.2376
筹画	-11.2376
邻	-11.2376
零碎	-11.2376
赵姨奶奶	-11.2376
抄录	-11.2376
街坊	-11.2376
静室	-11.2376
呵呵	-11.2376
算帐	-11.2376
翅	-11.2376
忍耐	-11.2376
不似先前	-11.2377
喝一杯	-11.2377
躁	-11.2377
检点	-11.2377
飘飘	-11.2377
荇	-11.2378
赌博	-11.2378
生了气	-11.2378
猛然	-11.2378
隆恩	-11.2378
医治	-11.2378
卧室	-11.2378
不觉滴下泪来	-11.2378
早晨	-11.2379
贵贱	-11.2379
驳回	-11.2379
疼痛	-11.2379
尸首	-11.2379
妥贴	-11.2379
撒野	-11.2379
磁	-11.2379
趁早儿	-11.238
叩谢	-11.238
莲花儿	-11.238
题曰	-11.238
爽快	-11.2381
有个好歹	-11.2381
欠安	-11.2381
得什么似的	-11.2381
小螺	-11.2381
跟我来	-11.2382
墨雨	-11.2382
迎了出来	-11.2382
痴痴	-11.2382
信以为	-11.2383
没造化	-11.2383
登记	-11.2383
但只一件	-11.2383
柔情	-11.2383
喜鸾	-11.2383
焉知	-11.2383
进入房中	-11.2384
斗牌	-11.2384
伙计们	-11.2384
寒温	-11.2384
娶了亲	-11.2384
音乐	-11.2384
搜寻	-11.2385
寿星	-11.2385
停灵	-11.2386
爱惜	-11.2386
藏躲	-11.2386
二百银子	-11.2386
进士	-11.2386
不知何意	-11.2386
岂敢	-11.2386
头晕	-11.2386
是有造化的	-11.2387
弄坏了	-11.2387
白绫	-11.2387
额外	-11.2388
坐了一会	-11.2388
算不得什么	-11.2388
姓林	-11.2388
发狠	-11.2388
蕙香	-11.2388
▁正闹	-11.2388
妥协	-11.2389
施礼	-11.2389
悲痛	-11.2389
喝一口	-11.2389
禀明	-11.239
百年	-11.239
劳神	-11.2391
西府里	-11.2391
种树	-11.2391
掌灯	-11.2392
过得去	-11.2392
身上穿著	-11.2392
夏天	-11.2393
隆儿	-11.2393
自谓	-11.2393
专管	-11.2394
傻丫头	-11.2395
焉得	-11.2395
环哥儿	-11.2395
赌钱	-11.2395
上了车	-11.2395
亏空	-11.2397
院落	-11.2397
旧例	-11.2397
探丫头	-11.2398
坐褥	-11.2398
昭儿	-11.2398
烦闷	-11.2398
寺中	-11.2398
调治	-11.24
闲谈	-11.24
脱身	-11.24
院门前	-11.2401
贾珠	-11.2401
膝下	-11.2401
妙极	-11.2404
冒失	-11.2404
吏部	-11.2404
小姐们	-11.2405
作媒	-11.2405
只听外面	-11.2406
信息	-11.2408
云雨	-11.2408
从里间	-11.2408
初一日	-11.241
底里	-11.2413
称赏	-11.2414
头脑	-11.2414
香料	-11.2415
气味	-11.2417
受苦	-11.2419
素喜	-11.2419
新巧	-11.2419
不得主意	-11.2419
四个字	-11.242
那一种	-11.242
几篇	-11.242
显得	-11.242
让了一回	-11.2422
不祥	-11.2423
调理	-11.2423
运气	-11.2425
度日	-11.2426
寻思	-11.2427
谁肯	-11.2427
失声	-11.2427
份儿	-11.2428
斟酒	-11.2428
顺手	-11.2429
笑容	-11.243
之计	-11.2432
雨水	-11.2432
新近	-11.2434
嗔着	-11.2436
入席	-11.2436
哭声	-11.244
总理	-11.244
西风	-11.2441
行李	-11.2442
家人们	-11.2442
雨村听了	-11.2444
妃子	-11.2444
受不得	-11.2445
庙中	-11.2445
失玉	-11.2446
越发得了	-11.2448
起诗社	-11.2449
八字	-11.245
几间	-11.245
叫喊	-11.2451
红毡	-11.2451
众人都笑说	-11.2451
作一首	-11.2451
发热	-11.2452
豆子	-11.2453
小弟	-11.2454
三首	-11.2459
著书	-11.2459
一剂	-11.2459
心下想	-11.246
二两银子	-11.246
妻子	-11.246
定神	-11.2461
在这屋里	-11.2461
家私	-11.2462
闻知	-11.2464
白石	-11.2465
裤子	-11.2465
赶不上	-11.2465
装睡	-11.2465
侍儿	-11.2466
没事人	-11.2467
平生	-11.2467
连忙起身	-11.2468
其间	-11.2469
甚么	-11.247
新媳妇	-11.2472
随口	-11.2472
凤姑娘	-11.2475
口舌	-11.2476
几遍	-11.2477
色色	-11.2478
一件东西	-11.2479
教习	-11.248
推辞	-11.2482
老公	-11.2482
三春	-11.2483
旧日	-11.2489
自称	-11.249
太医院	-11.2507
刚说到	-11.2513
这门亲	-11.2541
什么好东西	-11.2555
一颗	-11.2569
打发人来请	-11.2577
自是欢喜	-11.2586
第二个	-11.259
没福	-11.2591
停放	-11.2613
倘若	-11.2617
已醒	-11.2617
侄女儿	-11.2622
京里	-11.2628
比往日	-11.2643
日久	-11.2644
小器	-11.268
方欲说话	-11.2683
知音	-11.2689
喜得忙	-11.2702
共总	-11.2704
支使	-11.2731
两个姨娘	-11.2752
临死	-11.2769
陪着笑	-11.2795
你才说	-11.2809
也是好的	-11.2812
哪怕	-11.2814
也是一样	-11.2853
不知怎样	-11.2923
二十两银子	-11.2939
咱家	-11.2943
肚子	-11.2965
到京	-11.3002
三张	-11.3052
是什么原故	-11.3055
肚子里	-11.3071
写完	-11.3125
疾忙	-11.3138
几个小丫头	-11.3173
外间屋里	-11.3214
大家商议	-11.325
两桌	-11.3278
一百二十	-11.3313
趁此	-11.3329
荣国	-11.3382
心坎儿上	-11.3392
是什么话	-11.3472
全仗	-11.3509
塾	-11.354
小耗	-11.3547
慌忙	-11.3559
王妃	-11.3576
第五	-11.367
众清客	-11.3689
碗汤	-11.3696
著	-11.3697
顾不得	-11.3703
口称	-11.3703
别多心	-11.3716
骰	-11.3722
宋妈	-11.3729
孙女	-11.3743
未知何	-11.3752
吃了一惊	-11.3763
庶出	-11.3766
无益	-11.3769
柜	-11.3772
绛珠	-11.3773
幔	-11.3774
孩	-11.3781
神瑛侍者	-11.3782
范	-11.3783
模	-11.3787
斝	-11.3788
歇一歇	-11.3789
蘅芜君	-11.3789
右手	-11.3789
夫妻蕙	-11.379
蒂	-11.3791
那会子	-11.3791
昌	-11.3791
敝	-11.3791
紫檀	-11.3792
祟	-11.3792
香芋	-11.3792
冤孽	-11.3792
镌	-11.3792
口口声声	-11.3792
磕个头	-11.3792
譬如	-11.3792
誊	-11.3793
菱角	-11.3793
谢了恩	-11.3793
娥	-11.3793
朦胧睡去	-11.3793
厦	-11.3793
泄	-11.3794
亩	-11.3794
捱了打	-11.3794
糟踏	-11.3794
喜出望外	-11.3794
讳	-11.3794
腼腆	-11.3795
谊	-11.3795
稻	-11.3795
一时半刻	-11.3795
葱绿	-11.3795
婚姻	-11.3795
坡	-11.3795
囚	-11.3795
大清早起	-11.3795
检	-11.3796
弯腰	-11.3796
陋	-11.3796
啬	-11.3796
拌	-11.3796
满面泪痕	-11.3796
练	-11.3796
篆	-11.3796
姐夫	-11.3796
烹	-11.3796
删	-11.3796
哭得死去活来	-11.3796
晌	-11.3796
心下自思	-11.3797
地亩	-11.3797
抑	-11.3797
统制	-11.3797
舒	-11.3797
无可奈何	-11.3797
这劳什子	-11.3797
钓竿	-11.3797
可大好了	-11.3797
迂	-11.3797
秤	-11.3797
抱厦	-11.3797
姿	-11.3797
洲	-11.3798
伞	-11.3798
确	-11.3798
怎么怨得	-11.3798
捧上茶来	-11.3798
崩	-11.3798
锋	-11.3798
甄夫人	-11.3798
骡	-11.3798
劈	-11.3798
鸦雀无闻	-11.3798
狭	-11.3799
聪敏	-11.3799
满满的	-11.3799
瓮	-11.3799
粪	-11.3799
放在桌上	-11.3799
锄	-11.3799
舔	-11.38
四个大字	-11.38
虞	-11.38
熬煎	-11.38
尿	-11.38
桑	-11.38
颂	-11.38
狮子	-11.38
览	-11.38
铺子里	-11.38
寻访	-11.38
南安太妃	-11.38
觑	-11.38
党	-11.38
窟	-11.38
金麒麟	-11.3801
哇	-11.3801
袜	-11.3801
康	-11.3801
撇	-11.3801
娟	-11.3801
爪	-11.3801
髓	-11.3801
便掷了	-11.3801
只剩得	-11.3801
临安伯	-11.3801
叔侄	-11.3801
渺	-11.3801
虎狼	-11.3801
寥	-11.3801
悄悄儿的	-11.3801
秽	-11.3801
粳米	-11.3801
葫芦庙	-11.3801
多浑虫	-11.3802
成个体统	-11.3802
荫	-11.3802
纂	-11.3802
表兄	-11.3802
哗	-11.3802
敞	-11.3802
罐	-11.3802
铃	-11.3802
蒲团	-11.3802
裂	-11.3802
漆黑	-11.3802
伙贼	-11.3802
淑	-11.3802
叨	-11.3802
秋爽斋	-11.3802
帛	-11.3802
皂	-11.3802
摸了一摸	-11.3802
吴新登	-11.3802
煮	-11.3802
五言律	-11.3802
泛	-11.3802
纨	-11.3802
剃	-11.3803
诊了脉	-11.3803
孙绍祖	-11.3803
竭力	-11.3803
刮	-11.3803
吴良	-11.3803
紫菱洲	-11.3803
衣襟	-11.3803
垣	-11.3803
浆	-11.3803
陶	-11.3803
叨登	-11.3803
沽	-11.3803
追赶	-11.3803
癖	-11.3803
徇	-11.3803
恍恍惚惚	-11.3803
优	-11.3803
衣履	-11.3804
袅	-11.3804
佯	-11.3804
出了阁	-11.3804
茂	-11.3804
母舅	-11.3804
也值得	-11.3804
穿凿	-11.3804
瑞大爷	-11.3804
优伶	-11.3804
凸	-11.3804
潘	-11.3804
还搁得住	-11.3804
至晚饭后	-11.3804
急急的	-11.3804
忘不了	-11.3804
奢	-11.3804
篦	-11.3804
折磨	-11.3805
浊物	-11.3805
寐	-11.3805
灯谜	-11.3805
不似往日	-11.3805
霸占	-11.3805
妆饰	-11.3805
跌足	-11.3805
摇摇头儿	-11.3805
思前想后	-11.3805
份例	-11.3805
歇息歇息	-11.3806
口齿	-11.3806
热闹非常	-11.3806
雄奴	-11.3806
眩	-11.3806
捶腿	-11.3806
荣华	-11.3806
进房来	-11.3806
忧虑	-11.3806
容貌	-11.3806
车辆	-11.3806
林大娘	-11.3806
说得很是	-11.3806
海棠社	-11.3806
长叹一声	-11.3806
惊慌	-11.3807
跺脚	-11.3807
荤	-11.3807
午间	-11.3807
应允	-11.3807
莽	-11.3807
倪家母女	-11.3807
年迈	-11.3807
怯弱	-11.3807
在轿内	-11.3808
至贾母房中	-11.3808
安寝	-11.3808
贫穷	-11.3808
披衣	-11.3808
舀水	-11.3808
恩旨	-11.3809
四肢	-11.3809
罪孽	-11.3809
曲折	-11.3809
念过的	-11.3809
政老爹	-11.3809
祠堂	-11.3809
内眷	-11.3809
最厌	-11.3809
世宦	-11.381
月饼	-11.381
野鸡	-11.381
尧	-11.381
煎药	-11.381
脚踏	-11.381
迎上去	-11.381
兄妹	-11.381
刁钻古怪	-11.3811
思索	-11.3811
了两块	-11.3811
书籍	-11.3811
姐儿两个	-11.3811
北边	-11.3811
嘲笑	-11.3811
银蝶	-11.3811
个呆子	-11.3812
妇女	-11.3812
通灵玉	-11.3812
▁众人看了	-11.3812
世界	-11.3812
句句	-11.3812
哪位	-11.3813
矾	-11.3813
红绫	-11.3813
闺阁中	-11.3813
货物	-11.3813
往这里来	-11.3813
四姐儿	-11.3813
惟恐	-11.3814
夏婆子	-11.3814
鼓乐	-11.3815
打了一顿	-11.3815
玩器	-11.3816
置办	-11.3816
这算什么	-11.3816
献茶	-11.3816
音信	-11.3817
侧身	-11.3817
果然不错	-11.3817
豆官	-11.3817
清秀	-11.3818
这叫做	-11.3818
京官	-11.3818
从梦中	-11.3818
摇摇	-11.3818
奏明	-11.3819
连饭也	-11.3819
帐目	-11.3819
威风	-11.3819
安置	-11.3819
出一个人来	-11.3819
戏台	-11.382
倒也十分	-11.382
传谕	-11.3821
嫌疑	-11.3821
心中不自在	-11.3821
甄老爷	-11.3822
相识	-11.3822
到贾母跟前	-11.3822
轻巧	-11.3823
腰里	-11.3823
侍者	-11.3823
身量	-11.3823
姓张	-11.3824
黄汤	-11.3824
三寸	-11.3825
掌管	-11.3826
颠倒	-11.3826
妄想	-11.3827
吉日	-11.3827
幔子	-11.3827
十锦	-11.3827
各种	-11.3828
穿孝	-11.3828
初次	-11.3829
发财	-11.3829
厮闹	-11.383
吟诗	-11.383
沉重	-11.383
起程	-11.383
众人不解	-11.3831
适才	-11.3831
上车去了	-11.3831
白海棠	-11.3832
帽子	-11.3832
谎话	-11.3832
宝珠	-11.3832
告诉了一遍	-11.3832
贴身	-11.3834
世代	-11.3835
茶叶	-11.3836
吃醋	-11.3837
冬天	-11.3837
犯官	-11.3839
前厅	-11.3839
长辈	-11.384
失单	-11.3841
一篇话	-11.3841
各省	-11.3843
家运	-11.3843
轻重	-11.3844
地位	-11.3844
年例	-11.3844
情缘	-11.3845
女儿悲	-11.3846
青衣	-11.3846
致使	-11.3847
了几声	-11.385
齐声	-11.385
尽力	-11.385
二门口	-11.3851
钩子	-11.3851
几个小厮	-11.3851
安静些	-11.3852
兄弟们	-11.3853
打发我来	-11.3854
今朝	-11.3861
姐儿们	-11.3861
志气	-11.3863
一遭儿	-11.3865
是个男人	-11.3866
担待	-11.3867
是愿意的	-11.3869
懂得什么	-11.3876
有些体面	-11.388
瞧一瞧	-11.389
太多了	-11.3893
往前头	-11.3896
书架	-11.3899
乐业	-11.3901
疏散	-11.3909
清客相公	-11.391
领牌	-11.3934
不方便	-11.3938
司员	-11.3962
几步	-11.402
独自一个	-11.4026
郡王	-11.4048
厮见	-11.4062
鲜花	-11.4066
海灯	-11.4068
提防	-11.4075
前边来	-11.4144
至厅上	-11.419
掷骰	-11.4266
心下暗	-11.4398
趣味	-11.44
是什么病	-11.4427
总不理	-11.4435
五更天	-11.444
从来没	-11.4449
得空儿	-11.4481
乱跑	-11.4507
便冷笑	-11.4511
是奶奶的	-11.4516
问何事	-11.4559
从来没有	-11.456
觉没趣	-11.4576
命人送	-11.4709
三四十	-11.48
不是玩的	-11.4815
希罕	-11.4835
家学里	-11.4839
害臊	-11.4853
一千两	-11.4969
肯念书	-11.5045
奈何	-11.5084
夜晚	-11.5245
见他这般	-11.5271
主张	-11.5282
赦老	-11.5335
一面遣人	-11.536
拾起	-11.5413
端详	-11.542
钩	-11.5427
愠	-11.5428
灌溉	-11.5432
簪菊	-11.5445
蘸	-11.5445
绢包儿	-11.5445
黛	-11.5449
低下头	-11.5449
那长史官	-11.5449
蟠	-11.5449
淘	-11.545
警幻仙子	-11.5451
不介意	-11.5452
大红猩猩毡	-11.5453
舀	-11.5455
挖	-11.5455
践	-11.5456
头上戴着	-11.5456
皱眉	-11.5456
石榴	-11.5457
祠	-11.5457
龟	-11.5457
孙行者	-11.5457
劣	-11.5457
从古至今	-11.5458
贬	-11.5458
潇	-11.5458
塑	-11.5459
狱	-11.5459
亲眼见的	-11.5459
自作自受	-11.5459
输赢	-11.5459
ㄠ	-11.5459
焰	-11.546
沸	-11.5461
伦	-11.5461
眉开眼笑	-11.5461
眼错不见	-11.5461
筑	-11.5461
关切	-11.5461
沥	-11.5461
作粗活	-11.5462
卤	-11.5462
老亲翁	-11.5462
兴兴头头	-11.5462
秘	-11.5462
靶	-11.5462
炼	-11.5462
寇	-11.5463
琐碎	-11.5463
峰	-11.5463
畏惧	-11.5463
别委屈了	-11.5463
往稻香村来	-11.5463
攒盒	-11.5463
蔽	-11.5463
凹	-11.5463
藩	-11.5463
从那边来了	-11.5463
这也奇了	-11.5463
不解何意	-11.5463
疮	-11.5463
桐	-11.5464
跤	-11.5464
毛半仙	-11.5464
放屁	-11.5464
凌	-11.5464
吃了几杯	-11.5464
踌	-11.5464
沐盆	-11.5464
诽谤	-11.5464
錾	-11.5464
撰	-11.5464
几百钱	-11.5465
人命官司	-11.5465
千恩万谢	-11.5465
葱	-11.5465
吃一大惊	-11.5465
蒙圣恩	-11.5465
冢	-11.5465
憋	-11.5465
不待说完	-11.5465
沐	-11.5465
匀	-11.5465
拘束	-11.5465
喝了几杯	-11.5465
娈	-11.5465
衷	-11.5465
沟	-11.5465
晋	-11.5465
泽	-11.5465
禽	-11.5466
籰	-11.5466
红香圃	-11.5466
懦	-11.5466
和人说话	-11.5466
堆砌	-11.5466
惹人笑话	-11.5466
锣	-11.5466
驴	-11.5466
脊	-11.5466
溺	-11.5466
球	-11.5466
欣然	-11.5466
卜	-11.5466
嚎啕大哭	-11.5466
阑	-11.5466
黎	-11.5466
帘栊	-11.5466
俊俏	-11.5466
朽	-11.5466
没眼色	-11.5467
荳官	-11.5467
冷清清	-11.5467
旌	-11.5467
讽	-11.5467
说得众人都笑了	-11.5467
金文翔	-11.5467
玷辱了	-11.5467
剖	-11.5467
小叔子	-11.5467
巳	-11.5467
伴宿	-11.5467
执意不从	-11.5467
金星玻璃	-11.5467
击鼓	-11.5467
闸	-11.5467
簸箩	-11.5467
笏	-11.5467
挫	-11.5467
稽	-11.5467
盥手	-11.5467
鞋袜	-11.5467
▁注云	-11.5467
史大姑娘	-11.5467
崽	-11.5467
幌	-11.5467
弄出事来	-11.5467
效验	-11.5468
有凤来仪	-11.5468
十七岁	-11.5468
花了钱	-11.5468
俟	-11.5468
其词曰	-11.5468
冗	-11.5468
帏	-11.5468
淌	-11.5468
朴	-11.5468
述了一遍	-11.5468
鸿	-11.5468
堕	-11.5468
不容分说	-11.5468
农	-11.5468
屎	-11.5468
老糊涂了	-11.5468
柏	-11.5468
誉	-11.5468
雄	-11.5468
琏二叔	-11.5468
策	-11.5468
簪环	-11.5468
筏	-11.5468
络绎不绝	-11.5468
艾	-11.5468
赊	-11.5468
退婚	-11.5468
姨爹	-11.5468
诈	-11.5468
赏鉴	-11.5468
闭了眼	-11.5468
戈	-11.5468
想得周到	-11.5468
泄漏	-11.5468
鞍	-11.5468
羁	-11.5468
电	-11.5468
狐媚子	-11.5469
的语音	-11.5469
说了一回闲话	-11.5469
慌张	-11.5469
琐	-11.5469
我正要告诉	-11.5469
估量着	-11.5469
碑	-11.5469
冯渊	-11.5469
北静郡王	-11.5469
弯着腰	-11.5469
请医调治	-11.5469
说了些闲话	-11.5469
恣意	-11.5469
荣耀	-11.5469
髟	-11.5469
髻	-11.5469
护庇	-11.5469
泪如雨下	-11.5469
韶华	-11.5469
畸	-11.5469
一吊钱	-11.5469
传齐了	-11.5469
唆	-11.5469
狼	-11.5469
酌	-11.5469
砍	-11.5469
累赘	-11.5469
蒲	-11.547
吃酒赌钱	-11.547
涨	-11.547
吱	-11.547
贮	-11.547
枣	-11.547
多大年纪	-11.547
敕	-11.547
荡荡	-11.547
咤	-11.547
怪冷的	-11.547
痰迷	-11.547
是死是活	-11.547
生分了	-11.547
贩	-11.547
静静的	-11.547
掩埋	-11.547
汁	-11.547
愿意不愿意	-11.547
笙	-11.547
嘉	-11.547
邪魔	-11.547
姿色	-11.547
胡君荣	-11.547
傲	-11.5471
献勤	-11.5471
寂静	-11.5471
革职	-11.5471
与我什么相干	-11.5471
方不负	-11.5471
的话述了一遍	-11.5471
粗笨	-11.5471
羹	-11.5471
搓	-11.5471
欢天喜地	-11.5471
骇	-11.5471
没见世面	-11.5471
穿了衣服	-11.5471
萦	-11.5471
紫英	-11.5471
丘	-11.5471
听她的话	-11.5471
吴新登家的	-11.5471
想了想	-11.5472
弹墨	-11.5472
渚	-11.5472
西厢记	-11.5472
巴不得一声儿	-11.5472
烹茶	-11.5472
秦相公	-11.5472
稀罕	-11.5472
飒	-11.5472
顽耍	-11.5472
饧	-11.5472
佳节	-11.5472
分辨	-11.5472
威福	-11.5472
富丽	-11.5472
想她素日	-11.5472
嫔	-11.5472
杌	-11.5472
昂	-11.5472
水仙庵	-11.5472
拦阻	-11.5472
欢喜非常	-11.5472
站不住	-11.5472
一年半载	-11.5472
在他身上	-11.5472
半新不旧	-11.5473
清晨	-11.5473
鹿肉	-11.5473
喝一钟	-11.5473
出了院门	-11.5473
拉他的手	-11.5473
躺在地下	-11.5473
初二日	-11.5473
厮混	-11.5473
直竖	-11.5473
发泄	-11.5474
这话很是	-11.5474
你这小蹄子	-11.5474
敏	-11.5474
和你说话	-11.5474
蹈	-11.5474
式样	-11.5474
花大姐姐	-11.5474
脸上过不去	-11.5474
持不住	-11.5474
的声名	-11.5474
饮一杯	-11.5474
螭	-11.5474
各自走开	-11.5474
光辉	-11.5474
止不住	-11.5474
冯公子	-11.5474
抿着嘴笑	-11.5474
松柏	-11.5474
肌	-11.5475
央及	-11.5475
旬	-11.5475
施主	-11.5475
二百两银子	-11.5476
侧耳	-11.5476
酷	-11.5476
嘴唇	-11.5476
贾菱	-11.5476
方才所说	-11.5476
夷	-11.5476
倭	-11.5476
当槽儿的	-11.5476
抱厦内	-11.5476
出了房门	-11.5476
况兼	-11.5476
封锁	-11.5476
虾	-11.5477
赖升	-11.5477
众子侄	-11.5477
吃毕饭	-11.5477
楼阁	-11.5477
西瓜	-11.5477
岂肯	-11.5477
出了园门	-11.5477
周大娘	-11.5478
筵宴	-11.5478
花朵	-11.5478
五十两银子	-11.5478
十三岁	-11.5478
料理料理	-11.5478
举业	-11.5479
你别哄我	-11.5479
凤哥儿	-11.5479
高低	-11.5479
天伦	-11.5479
洁净	-11.5479
奇缘	-11.548
词句	-11.548
误伤	-11.548
着了凉	-11.548
陪侍	-11.548
秦业	-11.5481
周瑞家的等人	-11.5481
睡在床上	-11.5481
不可胜	-11.5481
比往常	-11.5481
发晕	-11.5482
忧闷	-11.5482
乖觉	-11.5482
配不上	-11.5482
相验	-11.5482
我竟不知道	-11.5484
一口血	-11.5484
贫嘴	-11.5484
碧月	-11.5484
势利	-11.5484
身冷汗	-11.5485
屯里	-11.5486
上了年纪	-11.5486
土物	-11.5486
图样	-11.5486
昨日晚上	-11.5487
粗细	-11.5487
所谓	-11.5487
杯盘	-11.5489
成个什么	-11.5489
等一等	-11.5492
编派	-11.5492
举目	-11.5493
不为别的	-11.5493
打发个人	-11.5496
到贾母房中	-11.5496
女孩儿们	-11.5498
是不怕的	-11.55
更时分	-11.5501
吃了一碗	-11.5502
多多的	-11.551
更多天	-11.5516
夜叉	-11.5523
展开	-11.5545
承认	-11.5549
谁许你	-11.5549
前番	-11.5556
在当地	-11.5567
撒了一	-11.5573
个好儿	-11.5589
可羡	-11.5602
是你做的	-11.5618
竟无一	-11.5669
稳重	-11.5689
铺设	-11.5696
大家都笑	-11.5699
听见人说	-11.5758
竹椅	-11.5759
有一定的	-11.5796
在外间睡	-11.5805
是上好的	-11.5861
添了许多	-11.5932
回到怡红院	-11.5934
耽搁	-11.5941
降旨	-11.6044
实告诉你	-11.6155
不知是何	-11.6383
公侯	-11.6517
便拿了一	-11.6629
十二个女孩子	-11.6719
地下站着	-11.6826
郡	-11.7132
半点儿	-11.7191
环哥	-11.7413
冯	-11.7419
志于学	-11.7422
贼寇	-11.7428
众神将	-11.7432
兰小子	-11.7437
茄	-11.744
石呆子	-11.7441
不敢擅入	-11.7441
灶	-11.7442
那起小人	-11.7443
搳	-11.7443
搭讪	-11.7444
觑着眼看	-11.7446
天诛地灭	-11.7446
零星	-11.7447
塘	-11.7447
趁此机会	-11.7448
池子里	-11.7448
俭省	-11.7449
秋香色	-11.7449
一僧一道	-11.745
箍	-11.745
痛难禁	-11.745
殊	-11.7451
怯怯	-11.7452
季	-11.7454
司棋的母亲	-11.7454
仅	-11.7455
朵	-11.7455
属员	-11.7455
孰	-11.7455
蜂腰	-11.7455
打几根	-11.7456
擒	-11.7456
胡诌	-11.7456
镂	-11.7456
勘	-11.7456
皓	-11.7456
兹	-11.7457
烬	-11.7457
讨人嫌	-11.7457
卍	-11.7457
..	-11.7457
枪	-11.7457
培	-11.7457
苍蝇	-11.7458
蛆	-11.7458
黄了脸	-11.7458
突突的	-11.7458
仕宦之	-11.7458
撷	-11.7458
有的没的	-11.7459
队	-11.7459
茫	-11.7459
歇了一歇	-11.7459
诔	-11.7459
俏丽	-11.7459
赔个不是	-11.7459
茜	-11.746
嫡	-11.746
象牙	-11.746
妪	-11.746
涌	-11.7461
脯	-11.7461
过贾母这边来	-11.7461
不知哪里去了	-11.7461
几千银子	-11.7461
舡	-11.7461
蹙	-11.7461
欣	-11.7461
页	-11.7462
怪热的	-11.7462
查一查	-11.7462
喜欢的了不得	-11.7462
几岁年纪	-11.7462
鹰	-11.7462
这是那里的话	-11.7462
哭得泪人一般	-11.7462
拼	-11.7462
遵旨	-11.7462
廉	-11.7462
汪汪	-11.7462
齐打伙	-11.7462
壳	-11.7462
猩猩毡	-11.7462
荔枝	-11.7462
来旺媳妇	-11.7463
盹	-11.7463
肌肤	-11.7463
琅	-11.7463
吃两杯	-11.7463
算一算	-11.7463
苛	-11.7463
蓼风轩	-11.7463
颊	-11.7463
缚	-11.7463
卯正二刻	-11.7463
沫	-11.7463
硬朗	-11.7463
皇帝	-11.7463
辛	-11.7463
用得着	-11.7463
问长问短	-11.7464
咬着牙	-11.7464
撂开手	-11.7464
撕掳	-11.7464
牢	-11.7464
传进话来	-11.7464
半个月	-11.7464
栋	-11.7464
浮躁	-11.7464
彻	-11.7464
簪缨	-11.7464
不打紧	-11.7464
在她身上	-11.7464
揉搓	-11.7464
虔	-11.7464
昭君	-11.7464
冷笑了两声	-11.7464
直挺挺	-11.7464
尾巴	-11.7465
励	-11.7465
钵	-11.7465
绽	-11.7465
王住儿媳妇	-11.7465
腐	-11.7465
缮	-11.7465
阮	-11.7465
械	-11.7465
翰	-11.7465
贾璜	-11.7465
赶围棋	-11.7465
醮	-11.7465
江西粮道	-11.7465
找一找	-11.7465
桔	-11.7465
琴谱	-11.7465
三步两步	-11.7466
坳	-11.7466
帐幔	-11.7466
接二连三	-11.7466
紧紧的	-11.7466
郊	-11.7466
愤	-11.7466
屁	-11.7466
荣华富贵	-11.7466
维	-11.7466
诏	-11.7466
谑	-11.7466
拱	-11.7466
在监里	-11.7466
文武衙门	-11.7466
豹	-11.7466
璜大奶奶	-11.7466
甥	-11.7466
抚琴	-11.7466
缀锦阁	-11.7466
一言不发	-11.7466
扳	-11.7466
娇嫩	-11.7466
她哥嫂	-11.7466
戕	-11.7466
三百六十	-11.7467
一班小戏	-11.7467
剿	-11.7467
喜不自胜	-11.7467
这又奇了	-11.7467
萱	-11.7467
蜡烛	-11.7467
掀起帘子	-11.7467
杏帘在望	-11.7467
碧纱橱	-11.7467
一口咬定	-11.7467
撑不住笑了	-11.7467
散散闷	-11.7467
芝	-11.7467
不大理会	-11.7467
招手儿叫	-11.7467
朔	-11.7467
膊	-11.7467
动用之物	-11.7467
放下心来	-11.7467
塌	-11.7467
南安郡王	-11.7467
洛	-11.7467
乌压压	-11.7467
卫	-11.7467
各自归房	-11.7467
焐	-11.7467
牡丹亭	-11.7467
▁后面又画	-11.7467
侬	-11.7467
周旋	-11.7467
烛辉煌	-11.7467
磕了个头	-11.7467
砧	-11.7467
频	-11.7467
蒋	-11.7468
姣	-11.7468
擎	-11.7468
箴	-11.7468
荔	-11.7468
跺	-11.7468
苑	-11.7468
瓷	-11.7468
订	-11.7468
娼	-11.7468
纲	-11.7468
啰	-11.7468
杠	-11.7468
倏	-11.7468
滔	-11.7469
勋	-11.7469
疗	-11.7469
枚	-11.7469
缟	-11.7469
矛	-11.7469
融	-11.7469
粱	-11.7469
捂	-11.747
魇	-11.747
嫖	-11.747
阿	-11.747
闱	-11.747
档	-11.747
殒	-11.747
扛	-11.747
挠	-11.747
醺	-11.747
榛	-11.747
握	-11.747
飕	-11.7471
墓	-11.7471
估	-11.7471
烤	-11.7471
震	-11.7471
肘	-11.7471
槽	-11.7471
厥	-11.7471
篙	-11.7472
绅	-11.7472
赁	-11.7472
绾	-11.7472
婉	-11.7472
阄	-11.7472
洽	-11.7473
抡	-11.7473
挟	-11.7473
捎	-11.7473
穰	-11.7473
壑	-11.7474
核	-11.7476
帑	-11.7477
趟	-11.9813
锤	-11.9925
燎	-11.9935
瑕	-11.9944
褶	-11.9944
氅	-11.9947
蚂	-11.9947
稼	-11.9948
贝	-11.9948
猿	-11.9949
躬	-11.9952
垄	-11.9954
儒	-11.9955
芥	-11.9955
磊	-11.9955
砂	-11.9955
蹋	-11.9955
臻	-11.9956
詹	-11.9956
翎	-11.9956
馥	-11.9957
藻	-11.9958
掠	-11.9958
乔	-11.9959
猢	-11.9959
俐	-11.996
袂	-11.996
鲍	-11.996
徨	-11.996
忡	-11.996
旱	-11.996
幢	-11.996
螺	-11.996
匿	-11.996
渣	-11.996
署	-11.9961
驻	-11.9961
胖	-11.9961
裔	-11.9961
聒	-11.9962
宏	-11.9962
嗣	-11.9962
莹	-11.9962
勇	-11.9962
暄	-11.9963
晰	-11.9963
眸	-11.9963
级	-11.9963
膻	-11.9963
瓟	-11.9963
秃	-11.9963
蕤	-11.9963
葳	-11.9963
襄	-11.9963
俭	-11.9963
壅	-11.9964
苗	-11.9964
镫	-11.9964
洼	-11.9964
绉	-11.9964
揎	-11.9964
昆	-11.9964
嗄	-11.9964
衙	-11.9964
箕	-11.9964
祷	-11.9964
仕	-11.9964
仄	-11.9965
悍	-11.9965
督	-11.9965
猖	-11.9965
熄	-11.9965
瞬	-11.9965
鳅	-11.9965
颖	-11.9965
匪	-11.9965
坎	-11.9965
罔	-11.9965
轴	-11.9965
迥	-11.9965
恳	-11.9966
勉	-11.9966
涯	-11.9966
虐	-11.9966
楞	-11.9966
诡	-11.9966
挲	-11.9966
啻	-11.9966
噗	-11.9966
娣	-11.9966
徐	-11.9966
介	-11.9966
悼	-11.9966
柯	-11.9966
稚	-11.9966
诳	-11.9966
隶	-11.9966
谶	-11.9966
蝇	-11.9967
吁	-11.9967
荧	-11.9967
嘈	-11.9967
鹑	-11.9967
芽	-11.9967
肴	-11.9967
突	-11.9967
蓝	-11.9967
噪	-11.9967
仃	-11.9967
槐	-11.9967
湾	-11.9967
赈	-11.9967
僵	-11.9967
槎	-11.9967
怅	-11.9967
筛	-11.9967
芬	-11.9967
碣	-11.9967
螯	-11.9967
迅	-11.9967
骤	-11.9967
縻	-11.9968
沁	-11.9968
振	-11.9968
渥	-11.9968
楷	-11.9968
湍	-11.9968
炙	-11.9968
痊	-11.9968
肢	-11.9968
唿	-11.9968
蛩	-11.9968
钝	-11.9968
妍	-11.9968
恸	-11.9968
浣	-11.9968
衡	-11.9968
鹊	-11.9968
纬	-11.9969
亵	-11.9969
您	-11.9969
滩	-11.9969
猩	-11.9969
撅	-11.9969
涸	-11.9969
辅	-11.9969
唰	-11.9969
奋	-11.9969
戮	-11.9969
膈	-11.9969
啖	-11.9969
凋	-11.9969
吣	-11.9969
鳖	-11.9969
拗	-11.997
躯	-11.997
逾	-11.997
尬	-11.997
峨	-11.997
枫	-11.997
燥	-11.997
餐	-11.997
酽	-11.997
俸	-11.9971
湖	-11.9971
跃	-11.9971
闯	-11.9971
靛	-11.9971
榆	-11.9971
齑	-11.9971
罽	-11.9971
亥	-11.9971
苓	-11.9971
澄	-11.9972
墀	-11.9972
宪	-11.9972
炖	-11.9972
穆	-11.9972
叱	-11.9972
迩	-11.9973
桓	-11.9973
摧	-11.9974
芷	-11.9974
"	-11.9975
蹑	-11.9975
侈	-11.9976
娴	-11.9977
巢	-11.9978
斛	-11.9982
妨	-12.3001
聪	-12.3213
颈	-12.3261
擂	-12.3261
镯	-12.327
睛	-12.3271
恣	-12.3276
嗜	-12.3279
觞	-12.3279
炽	-12.3279
汪	-12.328
霄	-12.3282
殃	-12.3282
搛	-12.3282
湃	-12.3284
纶	-12.3284
耕	-12.3286
邦	-12.3287
婪	-12.3287
晦	-12.3288
笆	-12.3288
恿	-12.3289
乙	-12.3289
亘	-12.3289
殉	-12.329
蹶	-12.329
蕴	-12.3291
遁	-12.3291
俩	-12.3292
郑	-12.3292
卒	-12.3292
剐	-12.3293
呛	-12.3293
绺	-12.3293
坞	-12.3293
忝	-12.3293
簟	-12.3293
嗷	-12.3293
钏	-12.3293
艰	-12.3294
俄	-12.3294
盥	-12.3294
憾	-12.3294
潢	-12.3294
笞	-12.3294
馅	-12.3294
佑	-12.3295
轨	-12.3295
琢	-12.3295
珊	-12.3295
伐	-12.3295
葭	-12.3295
诲	-12.3295
聆	-12.3296
裀	-12.3296
鸠	-12.3296
荳	-12.3296
哨	-12.3296
仲	-12.3296
匆	-12.3296
牖	-12.3296
蛾	-12.3297
韶	-12.3297
馈	-12.3297
夯	-12.3297
组	-12.3297
靥	-12.3297
饵	-12.3297
坦	-12.3297
郭	-12.3297
魆	-12.3297
蘼	-12.3298
磬	-12.3298
蔓	-12.3298
孕	-12.3298
炫	-12.3298
僭	-12.3298
标	-12.3299
卵	-12.3299
漕	-12.3299
瓤	-12.3299
掘	-12.3299
甩	-12.3299
玷	-12.3299
诨	-12.3299
竞	-12.3299
趸	-12.3299
巫	-12.3299
沼	-12.33
潦	-12.33
梓	-12.33
<	-12.33
>	-12.33
攘	-12.33
敦	-12.33
旅	-12.33
窿	-12.33
竣	-12.33
缢	-12.33
宠	-12.33
恻	-12.33
椒	-12.33
谲	-12.33
夔	-12.33
耸	-12.33
讥	-12.33
搪	-12.33
跹	-12.33
茎	-12.33
霁	-12.33
勿	-12.33
麦	-12.33
晖	-12.3301
芍	-12.3301
霭	-12.3301
嗡	-12.3301
呷	-12.3301
妓	-12.3301
靡	-12.3301
陡	-12.3301
恬	-12.3301
瘟	-12.3301
酣	-12.3301
鲸	-12.3301
川	-12.3301
券	-12.3301
嬉	-12.3301
构	-12.3301
毯	-12.3301
渎	-12.3301
癣	-12.3301
虱	-12.3301
蹰	-12.3301
棔	-12.3301
援	-12.3301
粳	-12.3301
坊	-12.3301
寰	-12.3301
坤	-12.3302
韩	-12.3302
剌	-12.3302
恙	-12.3302
簿	-12.3302
脐	-12.3302
辘	-12.3302
穴	-12.3302
诬	-12.3302
畦	-12.3302
侠	-12.3302
厕	-12.3302
屐	-12.3302
爖	-12.3302
诮	-12.3302
阙	-12.3302
庇	-12.3302
囔	-12.3303
屑	-12.3303
怖	-12.3303
脆	-12.3303
萤	-12.3303
蹿	-12.3303
雌	-12.3303
鞘	-12.3303
喽	-12.3303
粤	-12.3303
翩	-12.3303
媛	-12.3303
尉	-12.3303
臼	-12.3303
裱	-12.3303
统	-12.3303
哩	-12.3304
浦	-12.3304
舫	-12.3304
循	-12.3304
煤	-12.3304
绑	-12.3304
啷	-12.3304
梗	-12.3305
疔	-12.3305
矜	-12.3305
哈	-12.3305
屠	-12.3305
摄	-12.3305
液	-12.3305
峻	-12.3306
狡	-12.3306
迫	-12.3306
闩	-12.3306
獐	-12.3306
庐	-12.3307
焕	-12.3307
槁	-12.3307
菲	-12.3307
呕	-12.3307
呦	-12.3307
嗅	-12.3307
葡	-12.3307
韦	-12.3307
楠	-12.3308
箩	-12.3308
嚏	-12.3308
胭	-12.3309
蛤	-12.3309
伽	-12.331
搏	-12.331
卑	-12.3311
缀	-12.3312
椁	-12.3312
悚	-12.3317
脖	-12.8219
胫	-12.8249
麀	-12.826
肷	-12.8263
衿	-12.8264
奥	-12.8265
稠	-12.827
恒	-12.8271
裳	-12.8274
雯	-12.8275
吆	-12.8277
鹭	-12.8277
植	-12.8278
诧	-12.8278
崔	-12.8279
虬	-12.8279
烁	-12.8279
犀	-12.8279
棕	-12.8281
烙	-12.8282
朋	-12.8283
偕	-12.8285
璧	-12.8285
陛	-12.8286
渊	-12.8286
澡	-12.8287
陨	-12.8287
嫉	-12.8288
惕	-12.8288
括	-12.8288
爨	-12.8288
徽	-12.8288
珰	-12.8288
挦	-12.8289
樱	-12.829
阜	-12.829
漉	-12.829
榴	-12.8291
灼	-12.8291
厄	-12.8291
雹	-12.8291
忱	-12.8291
戟	-12.8291
冀	-12.8292
檠	-12.8292
朕	-12.8293
纫	-12.8293
殁	-12.8294
沦	-12.8294
惓	-12.8294
芋	-12.8294
扔	-12.8294
樊	-12.8294
穹	-12.8294
窠	-12.8294
锯	-12.8294
谣	-12.8295
捻	-12.8295
菌	-12.8295
璜	-12.8296
惙	-12.8296
拇	-12.8296
臆	-12.8296
蝠	-12.8296
辔	-12.8296
钮	-12.8296
雉	-12.8296
鳏	-12.8296
吝	-12.8297
碌	-12.8297
憎	-12.8297
隽	-12.8297
蠡	-12.8297
谗	-12.8298
埭	-12.8298
塔	-12.8298
姆	-12.8298
旄	-12.8298
棹	-12.8298
樾	-12.8298
炯	-12.8298
紬	-12.8298
苞	-12.8298
荻	-12.8298
诟	-12.8298
钢	-12.8298
谖	-12.8298
戎	-12.8298
槿	-12.8298
譬	-12.8298
啥	-12.8298
煨	-12.8298
葩	-12.8298
蟾	-12.8298
觐	-12.8298
跷	-12.8298
祀	-12.8299
幄	-12.8299
埘	-12.8299
控	-12.8299
泰	-12.8299
粼	-12.8299
苟	-12.8299
蛊	-12.8299
讵	-12.8299
辗	-12.8299
淖	-12.8299
娑	-12.83
宸	-12.83
帆	-12.83
皎	-12.83
趾	-12.83
伺	-12.83
彭	-12.83
蟆	-12.83
竭	-12.83
丞	-12.83
喃	-12.83
幙	-12.83
弋	-12.83
杓	-12.83
梏	-12.83
槌	-12.83
殚	-12.83
珩	-12.83
锹	-12.83
鬒	-12.83
觥	-12.83
鹃	-12.83
冽	-12.83
潸	-12.83
秾	-12.83
咈	-12.83
湮	-12.83
跏	-12.83
欹	-12.8301
潭	-12.8301
鳌	-12.8301
皑	-12.8301
翦	-12.8301
斧	-12.8301
佐	-12.8301
佚	-12.8301
劾	-12.8301
厘	-12.8301
咻	-12.8301
唏	-12.8301
娆	-12.8301
娲	-12.8301
孺	-12.8301
嶂	-12.8301
恢	-12.8301
栩	-12.8301
炳	-12.8301
瘸	-12.8301
祈	-12.8301
窘	-12.8301
糜	-12.8301
缁	-12.8301
蛮	-12.8301
銮	-12.8301
飨	-12.8301
矢	-12.8301
俦	-12.8301
娃	-12.8301
戍	-12.8301
剎	-12.8301
缥	-12.8301
予	-12.8301
栊	-12.8301
淮	-12.8301
炬	-12.8301
簸	-12.8301
俨	-12.8302
垢	-12.8302
慵	-12.8302
纛	-12.8302
蟀	-12.8302
蟋	-12.8302
谒	-12.8302
钤	-12.8302
隅	-12.8302
狸	-12.8302
宥	-12.8302
浴	-12.8302
馁	-12.8302
乾	-12.8302
嵇	-12.8302
汲	-12.8302
凛	-12.8302
彝	-12.8302
撼	-12.8302
楫	-12.8302
翘	-12.8302
蛰	-12.8302
讼	-12.8302
贿	-12.8302
铭	-12.8302
霓	-12.8302
筝	-12.8303
唾	-12.8303
璘	-12.8303
赛	-12.8303
齁	-12.8303
蔬	-12.8303
.	-12.8303
吸	-12.8303
颁	-12.8303
—	-12.8304
伫	-12.8304
创	-12.8304
扪	-12.8304
歧	-12.8304
涛	-12.8304
湫	-12.8304
滃	-12.8304
獭	-12.8304
琛	-12.8304
蚌	-12.8304
谥	-12.8304
辕	-12.8304
阕	-12.8304
盂	-12.8304
啸	-12.8304
薪	-12.8304
啾	-12.8305
址	-12.8305
帷	-12.8305
糠	-12.8305
谛	-12.8305
嘎	-12.8305
冶	-12.8305
藉	-12.8305
侮	-12.8306
搴	-12.8306
摊	-12.8306
桨	-12.8307
凫	-12.8307
爰	-12.8307
籁	-12.8307
蓍	-12.8307
貉	-12.8307
逻	-12.8307
锢	-12.8307
蝌	-12.8308
窜	-12.8308
簧	-12.8308
嵩	-12.8309
掯	-12.8309
痘	-12.8309
殷	-12.8309
鼾	-12.8309
杰	-12.831
播	-12.831
蔺	-12.8311
昵	-12.8313
狎	-12.8313
匡	-12.8313
囟	-12.8313
溉	-12.8313
倡	-12.8313
觚	-12.8313
桧	-12.8315
涮	-12.8316
瞽	-12.8316
鲟	-12.8316
泠	-12.8316
蔡	-12.8318
纣	-12.8318
溢	-12.832
禹	-12.832
糯	-12.8321
辙	-12.8322
赭	-12.8323
祚	-12.8326
倪	-13.7723
黧	-13.7978
黏	-13.7979
麾	-13.798
麈	-13.7981
鹾	-13.7982
鹡	-13.7983
鹄	-13.7984
鸰	-13.7985
鲞	-13.7986
鮹	-13.7987
饲	-13.7988
隋	-13.7989
陌	-13.799
阊	-13.7991
镀	-13.7992
锻	-13.7993
酗	-13.7994
邱	-13.7995
邙	-13.7996
逍	-13.7997
迄	-13.7998
轸	-13.7999
轳	-13.8
阎	-13.8001
蹁	-13.8001
踟	-13.8002
跸	-13.8003
跐	-13.8004
趱	-13.8005
谵	-13.8006
谇	-13.8007
觌	-13.8008
襁	-13.8009
褵	-13.801
褡	-13.8011
褙	-13.8012
褓	-13.8013
裢	-13.8014
衢	-13.8015
藐	-13.8016
蔻	-13.8017
蒹	-13.8018
萄	-13.8019
荏	-13.802
茞	-13.8021
茔	-13.8022
苒	-13.8023
舱	-13.8024
腑	-13.8025
翥	-13.8026
羼	-13.8027
纡	-13.8028
篾	-13.8029
筅	-13.803
笃	-13.8031
碴	-13.8032
睢	-13.8033
睇	-13.8034
瘀	-13.8035
瑚	-13.8036
琳	-13.8037
猞	-13.8038
猗	-13.8039
猁	-13.804
狰	-13.8041
狞	-13.8042
犄	-13.8043
牍	-13.8044
版	-13.8045
煽	-13.8046
滓	-13.8047
淳	-13.8048
淇	-13.8049
涝	-13.805
沌	-13.8051
氲	-13.8052
氤	-13.8053
橄	-13.8054
榄	-13.8055
楹	-13.8056
楣	-13.8057
栉	-13.8058
栅	-13.8059
枢	-13.806
杉	-13.8061
搔	-13.8062
拒	-13.8063
懈	-13.8064
愕	-13.8065
惛	-13.8066
怂	-13.8067
庞	-13.8068
帜	-13.8069
帔	-13.807
巅	-13.8071
嫱	-13.8072
婺	-13.8073
墟	-13.8074
圭	-13.8075
喋	-13.8076
唼	-13.8077
唪	-13.8078
咙	-13.8079
僚	-13.808
傧	-13.8081
偌	-13.8082
倔	-13.8083
佻	-13.8084
佣	-13.8085
鹌	-13.8086
髅	-13.8087
骷	-13.8088
骯	-13.8089
骆	-13.809
驼	-13.8091
驸	-13.8092
颧	-13.8093
锵	-13.8094
铿	-13.8095
邸	-13.8096
踊	-13.8097
踉	-13.8098
跄	-13.8099
贸	-13.81
贷	-13.8101
贞	-13.8102
谐	-13.8103
诱	-13.8104
诙	-13.8105
蜀	-13.8106
蚁	-13.8107
菂	-13.8108
臜	-13.8109
肓	-13.811
缤	-13.8111
糙	-13.8112
砾	-13.8113
盾	-13.8114
瑙	-13.8115
琉	-13.8116
玦	-13.8117
玛	-13.8118
獗	-13.8119
渔	-13.812
汀	-13.8121
殄	-13.8122
欧	-13.8123
樨	-13.8124
棘	-13.8125
柢	-13.8126
柚	-13.8127
枰	-13.8128
杳	-13.8129
揩	-13.813
拮	-13.8131
惬	-13.8132
悯	-13.8133
嫣	-13.8134
婵	-13.8135
娄	-13.8136
墩	-13.8137
墅	-13.8138
噜	-13.8139
匝	-13.814
丐	-13.8141
饽	-13.8142
阗	-13.8143
迢	-13.8144
谆	-13.8145
莱	-13.8146
腋	-13.8147
胳	-13.8148
泞	-13.8148
绩	-13.8149
绔	-13.815
筷	-13.8151
笤	-13.8152
禧	-13.8153
瞥	-13.8154
珖	-13.8155
珐	-13.8156
灸	-13.8157
澌	-13.8158
涵	-13.8159
沤	-13.816
枳	-13.8161
札	-13.8162
暹	-13.8163
捺	-13.8164
憔	-13.8165
慷	-13.8166
悴	-13.8167
怏	-13.8168
彷	-13.8169
巨	-13.817
尴	-13.8171
哆	-13.8172
呻	-13.8173
叛	-13.8174
刎	-13.8175
仵	-13.8176
鸹	-13.8177
陇	-13.8178
酉	-13.8179
逶	-13.818
迤	-13.8181
躇	-13.8182
讶	-13.8183
衍	-13.8184
莉	-13.8185
茉	-13.8186
舛	-13.8187
臾	-13.8188
翡	-13.8189
砒	-13.819
狲	-13.8191
懊	-13.8192
尹	-13.8193
埃	-13.8194
均	-13.8195
噙	-13.8196
憩	-13.8196
咂	-13.8197
骘	-13.8198
飖	-13.8199
霰	-13.82
豫	-13.8201
螫	-13.8202
薜	-13.8203
菖	-13.8204
耿	-13.8205
缱	-13.8206
绻	-13.8207
绎	-13.8208
甸	-13.8209
洑	-13.821
梆	-13.8211
攮	-13.8212
辟	-13.8212
戥	-13.8213
徘	-13.8214
徊	-13.8215
婷	-13.8216
婳	-13.8217
姽	-13.8218
奄	-13.8219
冉	-13.822
乜	-13.8221
鹉	-13.8222
酪	-13.8223
裕	-13.8224
蝴	-13.8225
芒	-13.8226
羔	-13.8227
琶	-13.8228
俚	-13.8229
琵	-13.8229
珞	-13.823
牲	-13.8231
溆	-13.8232
淅	-13.8233
浩	-13.8234
槟	-13.8235
榔	-13.8236
曷	-13.8237
欤	-13.8237
桩	-13.8237
攥	-13.8238
愦	-13.8239
啕	-13.824
跛	-13.8241
谙	-13.8242
蝎	-13.8243
蝈	-13.8244
篮	-13.8245
皿	-13.8246
甬	-13.8247
瑛	-13.8248
慑	-13.8249
惺	-13.8249
妩	-13.825
咛	-13.8251
饬	-13.8252
霍	-13.8253
蹭	-13.8254
蚊	-13.8255
葵	-13.8256
棵	-13.8257
撺	-13.8258
卉	-13.8259
肖	-13.826
喀	-13.8261
簌	-13.8261
癫	-13.8262
畜	-13.8263
拷	-13.8264
墁	-13.8265
妞	-13.8265
喳	-13.8266
栗	-13.8267
黹	-13.8267
赫	-13.8268
惫	-13.8269
懵	-13.8269
芭	-13.8269
珑	-13.827
玲	-13.8271
杆	-13.8272
俑	-13.8273
匏	-13.8273
恹	-13.8273
娌	-13.8274
妯	-13.8275
嘁	-13.8276
堡	-13.8277
忤	-13.8277
蝗	-13.8277
唯	-13.8277
咭	-13.8278
俞	-13.8279
钥	-13.828
宛	-13.8281
弘	-13.8281
杪	-13.8281
汕	-13.8281
狮	-13.8281
煌	-13.8281
喇	-13.8282
馒	-13.8283
疆	-13.8283
锞	-13.8284
弥	-13.8284
哎	-13.8285
庖	-13.8285
恁	-13.8285
恺	-13.8285
戾	-13.8285
穗	-13.8285
睦	-13.8286
呱	-13.8287
〔	-13.8288
偃	-13.8289
垦	-13.8289
壤	-13.8289
妤	-13.8289
婕	-13.8289
枸	-13.8289
柬	-13.8289
歉	-13.8289
翔	-13.8289
茯	-13.8289
奚	-13.829
埂	-13.829
奕	-13.8291
峭	-13.8291
樯	-13.8291
哽	-13.8291
胧	-13.8292
¥	-13.8293
丙	-13.8293
亿	-13.8293
侃	-13.8293
侪	-13.8293
刷	-13.8293
匈	-13.8293
弗	-13.8293
杞	-13.8293
汰	-13.8293
矶	-13.8293
兢	-13.8294
帼	-13.8295
弈	-13.8295
掺	-13.8295
杷	-13.8295
枇	-13.8295
框	-13.8295
毘	-13.8295
麒	-13.8295
娉	-13.8296
迭	-13.8296
缨	-13.8296
龄	-13.8297
募	-13.8297
厂	-13.8297
喏	-13.8297
嗦	-13.8297
坍	-13.8297
奼	-13.8297
忳	-13.8297
抗	-13.8297
敁	-13.8297
敪	-13.8297
斸	-13.8297
桎	-13.8297
毓	-13.8297
诼	-13.8297
互	-13.8297
瑰	-13.8297
玫	-13.8298
芙	-13.8298
─	-13.8299
佞	-13.8299
呶	-13.8299
喻	-13.8299
嫠	-13.8299
枷	-13.8299
浙	-13.8299
哝	-13.8299
橘	-13.8299
惰	-13.83
凰	-13.83
堑	-13.83
姝	-13.83
媾	-13.83
弼	-13.83
搐	-13.83
曩	-13.83
柘	-13.83
瑟	-13.83
葫	-13.83
掳	-13.83
嫦	-13.83
媖	-13.83
岛	-13.83
梵	-13.83
薇	-13.83
琪	-13.83
搦	-13.83
鸯	-13.8301
娜	-13.8301
揆	-13.8301
腆	-13.8301
俘	-13.8301
俵	-13.8301
俾	-13.8301
凯	-13.8301
剁	-13.8301
匐	-13.8301
匮	-13.8301
卓	-13.8301
叵	-13.8301
吕	-13.8301
吻	-13.8301
喑	-13.8301
囋	-13.8301
圊	-13.8301
圹	-13.8301
垤	-13.8301
塍	-13.8301
媪	-13.8301
寤	-13.8301
屣	-13.8301
岚	-13.8301
徭	-13.8301
悒	-13.8301
惋	-13.8301
愍	-13.8301
拯	-13.8301
挞	-13.8301
掊	-13.8301
擢	-13.8301
曦	-13.8301
楸	-13.8301
榧	-13.8301
槔	-13.8301
槥	-13.8301
樵	-13.8301
樽	-13.8301
橙	-13.8301
欷	-13.8301
歔	-13.8301
殆	-13.8301
殇	-13.8301
沓	-13.8301
绍	-13.8301
诛	-13.8301
靖	-13.8301
彘	-13.8301
廷	-13.8301
噫	-13.8301
ㄚ	-13.8301
嬗	-13.8301
峡	-13.8301
嵬	-13.8301
搵	-13.8301
枒	-13.8301
栎	-13.8301
樗	-13.8301
橼	-13.8301
腼	-13.8302
侥	-13.8302
岭	-13.8302
庾	-13.8302
攦	-13.8302
巍	-13.8302
诽	-13.8303
趄	-13.8303
趔	-13.8303
亸	-13.8303
伟	-13.8303
侑	-13.8303
倕	-13.8303
刨	-13.8303
勃	-13.8303
厝	-13.8303
坷	-13.8303
孀	-13.8303
岑	-13.8303
幪	-13.8303
捍	-13.8303
晏	-13.8303
朮	-13.8303
析	-13.8303
椿	-13.8303
毙	-13.8303
鹦	-13.8303
溶	-13.8304
梧	-13.8305
褒	-13.8305
偄	-13.8305
勖	-13.8305
区	-13.8305
呲	-13.8305
啄	-13.8305
噤	-13.8305
屃	-13.8305
届	-13.8305
峥	-13.8305
嵘	-13.8305
嶒	-13.8305
弒	-13.8305
彪	-13.8305
彰	-13.8305
悫	-13.8305
惆	-13.8305
抔	-13.8305
掬	-13.8305
揌	-13.8305
擉	-13.8305
擿	-13.8305
旃	-13.8305
晤	-13.8305
杭	-13.8305
桡	-13.8305
汇	-13.8305
阐	-13.8305
嘟	-13.8305
惦	-13.8306
逊	-13.8306
唠	-13.8307
琮	-13.8307
囹	-13.8307
圄	-13.8307
弛	-13.8307
擤	-13.8307
歍	-13.8307
殂	-13.8307
忖	-13.8307
诰	-13.8308
蠹	-13.8308
牡	-13.8308
叽	-13.8309
垒	-13.8309
垛	-13.8309
壬	-13.8309
奎	-13.8309
懑	-13.8309
螃	-13.8309
篷	-13.831
玻	-13.831
橇	-13.8311
沈	-13.8311
熙	-13.8311
悠	-13.8312
肤	-13.8313
伍	-13.8313
吶	-13.8313
啃	-13.8313
岩	-13.8313
幛	-13.8313
庑	-13.8313
愆	-13.8313
戗	-13.8313
揲	-13.8313
曳	-13.8313
寞	-13.8313
菡	-13.8314
叭	-13.8315
唳	-13.8315
崖	-13.8315
璃	-13.8315
纷	-13.8316
姥	-13.8317
剧	-13.8317
宓	-13.8317
帅	-13.8317
敔	-13.8317
曼	-13.8317
氆	-13.8317
氇	-13.8317
瞟	-13.8317
辜	-13.8317
唧	-13.8318
孳	-13.8319
芜	-13.8319
萨	-13.832
扒	-13.8321
呜	-13.8321
菩	-13.8322
陀	-13.8323
董	-13.8324
蹄	-13.8324
岫	-13.8324
摹	-13.8325
桀	-13.8325
惚	-13.8325
咕	-13.8326
髯	-13.8327
琥	-13.8327
珀	-13.8328
仔	-13.8329
矩	-13.833
概	-13.8331
―	-13.8332
婶	-13.8333
吩	-13.8334
咐	-13.8335
嬷	-13.8336
丫	-13.8337
亢	-13.8337
咨	-13.8337
汞	-13.8337
